<pad>	0
</s>	0
<unk>	0
<comment>	0
</comment>	0
<start>	0
<end>	0
<nl>	0
▁(	-2.55617
▁)	-2.56006
▁.	-2.90844
▁;	-3.17775
▁,	-3.60525
▁{	-3.76155
▁}	-3.76262
▁=	-4.111
▁if	-4.6301
▁return	-4.67355
_	-4.71005
▁<	-4.71941
▁@	-4.76346
▁>	-4.76623
▁"	-4.80189
▁new	-4.91151
▁	-4.94585
▁the	-4.95575
▁String	-4.98112
▁null	-5.11702
s	-5.16074
▁public	-5.18509
"	-5.28938
▁get	-5.36806
▁+	-5.51713
▁final	-5.5649
▁//	-5.636
.	-5.66372
▁this	-5.66631
▁to	-5.68011
▁int	-5.71444
▁[	-5.72863
▁]	-5.74446
▁==	-5.80397
Exception	-5.82865
▁0	-5.83474
▁for	-5.84455
▁:	-5.85354
▁i	-5.90964
▁is	-5.91194
▁void	-5.91958
▁a	-5.92564
▁param	-5.95756
▁Override	-6.04397
▁e	-6.04887
▁!=	-6.06241
▁of	-6.15151
▁value	-6.17122
▁throws	-6.18051
▁else	-6.20741
▁set	-6.25273
▁add	-6.27068
▁throw	-6.35907
▁name	-6.42473
▁static	-6.43032
▁1	-6.44939
Type	-6.45554
▁?	-6.51836
▁private	-6.5237
▁List	-6.52716
▁Object	-6.54792
▁result	-6.56489
▁T	-6.57417
▁in	-6.57779
▁try	-6.61159
▁request	-6.62018
▁m	-6.65634
▁'	-6.66897
▁class	-6.67625
Name	-6.69283
▁type	-6.69693
▁context	-6.69819
▁&&	-6.7096
▁boolean	-6.71705
▁length	-6.72046
▁catch	-6.72424
▁!	-6.72829
▁true	-6.73388
▁key	-6.74274
▁-	-6.74691
2	-6.75135
▁be	-6.77507
1	-6.83526
▁false	-6.85311
▁create	-6.85415
Id	-6.87451
:	-6.87534
▁append	-6.87551
-	-6.88955
▁not	-6.90098
▁_	-6.91559
Request	-6.92818
▁and	-6.92943
,	-6.94555
▁case	-6.98695
▁size	-6.99055
▁code	-7.04052
▁IOException	-7.05072
▁p	-7.09404
▁from	-7.09946
List	-7.11161
▁with	-7.1193
▁/	-7.12715
▁put	-7.14536
▁++	-7.15078
▁The	-7.15808
▁Map	-7.16465
▁equals	-7.16887
▁data	-7.1736
Context	-7.18035
▁||	-7.19368
/	-7.20383
Value	-7.21698
▁c	-7.23304
▁long	-7.2467
▁method	-7.253
▁link	-7.25492
▁Exception	-7.26417
▁file	-7.26769
▁list	-7.27028
▁index	-7.30278
▁response	-7.31845
▁s	-7.32536
Result	-7.32973
▁protected	-7.33968
Key	-7.35003
▁path	-7.36348
▁out	-7.36946
Map	-7.36996
▁node	-7.3745
▁that	-7.38243
Data	-7.39303
▁instanceof	-7.40023
▁it	-7.40717
▁Class	-7.41096
▁id	-7.41548
▁or	-7.43111
▁byte	-7.4363
▁on	-7.44397
▁current	-7.44734
▁toString	-7.44827
▁object	-7.45078
Info	-7.45439
▁an	-7.46813
▁getName	-7.47226
d	-7.50564
t	-7.51932
▁start	-7.52136
▁map	-7.52357
▁break	-7.5236
'	-7.53182
n	-7.53207
▁message	-7.53253
Node	-7.53367
▁error	-7.53449
ing	-7.54932
▁log	-7.55033
Class	-7.5627
To	-7.56808
▁entry	-7.57059
▁target	-7.57213
▁input	-7.57671
▁double	-7.59807
▁write	-7.60105
▁*	-7.60117
▁File	-7.60863
▁x	-7.60948
Config	-7.61073
▁next	-7.61132
Builder	-7.6237
▁t	-7.63423
▁b	-7.6351
Factory	-7.63805
▁field	-7.64027
Path	-7.66132
File	-7.66757
▁v	-7.66924
▁n	-7.67739
▁Integer	-7.67847
▁as	-7.67969
▁read	-7.68928
▁java	-7.69911
Service	-7.70366
▁builder	-7.7079
Index	-7.71111
▁element	-7.71253
▁has	-7.72142
▁while	-7.73124
String	-7.73185
▁<>	-7.73418
▁2	-7.73504
▁ArrayList	-7.73974
Object	-7.73978
ed	-7.74808
▁values	-7.74973
S	-7.75013
▁resource	-7.75018
▁build	-7.75814
▁I	-7.76205
▁super	-7.76551
▁format	-7.77318
▁all	-7.77343
▁System	-7.77911
▁com	-7.78465
Configuration	-7.78516
▁remove	-7.78973
State	-7.8003
▁source	-7.81799
▁o	-7.82114
▁->	-7.8443
▁query	-7.84672
Response	-7.84744
▁token	-7.84947
▁will	-7.85103
▁default	-7.85116
Element	-7.85916
▁state	-7.85967
▁by	-7.86644
▁#	-7.86712
▁logger	-7.86724
▁update	-7.86929
Manager	-7.87659
▁config	-7.87764
▁are	-7.88255
3	-7.8828
▁IllegalArgument	-7.88874
▁buffer	-7.88966
▁given	-7.89831
▁sb	-7.90133
▁marshall	-7.90439
▁isEmpty	-7.90882
Set	-7.90962
▁stream	-7.9164
ID	-7.91659
."	-7.91736
▁A	-7.9177
▁instance	-7.92027
▁info	-7.92471
▁ex	-7.9266
▁getValue	-7.9266
▁event	-7.92784
▁Set	-7.94233
▁V	-7.94687
▁we	-7.9492
Count	-7.95343
Handler	-7.95776
▁check	-7.96134
▁j	-7.97395
▁array	-7.97662
▁string	-7.98866
▁parse	-7.98909
Event	-7.99172
▁end	-7.99601
code	-8.00051
▁user	-8.00343
▁debug	-8.01301
▁client	-8.01451
▁parent	-8.01538
Size	-8.01641
Message	-8.02283
▁first	-8.02387
▁extends	-8.0343
▁&	-8.04425
Impl	-8.06447
Field	-8.06778
▁R	-8.07178
▁args	-8.07285
▁call	-8.07367
x	-8.07547
▁property	-8.07609
Resource	-8.07814
▁output	-8.08716
▁If	-8.08821
▁filter	-8.08958
Method	-8.09419
▁max	-8.09916
▁y	-8.11662
D	-8.12344
▁can	-8.1268
For	-8.12897
▁find	-8.1312
▁service	-8.13516
otocolMarshaller	-8.13869
Entry	-8.14131
▁item	-8.14184
Property	-8.14736
▁session	-8.14742
▁url	-8.15394
▁f	-8.16572
▁r	-8.16644
▁tc	-8.17105
▁text	-8.17302
▁close	-8.17455
Group	-8.17725
▁contains	-8.18065
▁E	-8.18651
▁count	-8.18951
▁StringBuilder	-8.19384
▁+=	-8.19415
▁offset	-8.19678
▁last	-8.19758
▁process	-8.20229
From	-8.20344
Model	-8.20622
Time	-8.20625
▁%	-8.20927
▁exception	-8.20986
er	-8.21809
▁K	-8.21967
Client	-8.22393
▁C	-8.22543
Error	-8.22657
Table	-8.22794
▁getMessage	-8.228
▁parameters	-8.2319
▁line	-8.23289
Listener	-8.2343
(	-8.23695
▁writer	-8.2392
▁Long	-8.24001
Item	-8.24062
▁This	-8.25132
Definition	-8.25466
▁Collection	-8.2586
▁content	-8.26357
▁finally	-8.26915
r	-8.27008
▁LOG	-8.27459
▁other	-8.28021
▁use	-8.2841
▁''	-8.28898
Provider	-8.29071
▁do	-8.2942
▁model	-8.29423
▁connection	-8.29757
▁Get	-8.29827
▁no	-8.30165
Expression	-8.30321
▁d	-8.30359
Utils	-8.30945
▁pr	-8.31054
)	-8.31095
▁properties	-8.31137
▁obj	-8.31165
g	-8.31467
▁found	-8.31563
▁group	-8.31606
▁execute	-8.3175
NAME	-8.31792
Depth	-8.31933
▁S	-8.32965
▁table	-8.32998
Query	-8.33005
Cache	-8.33017
Properties	-8.33354
▁which	-8.33478
f	-8.3349
▁should	-8.33562
Filter	-8.33956
▁time	-8.34417
▁delete	-8.34685
Metrics	-8.35323
▁configuration	-8.35434
▁specified	-8.35741
Status	-8.35955
Array	-8.366
▁str	-8.37546
In	-8.37746
4	-8.37795
With	-8.37799
▁Boolean	-8.38047
▁println	-8.38349
Attribute	-8.39449
▁entity	-8.39818
▁params	-8.40249
A	-8.40263
▁getClass	-8.40757
▁server	-8.40788
Instance	-8.40909
▁msg	-8.41241
▁child	-8.41268
▁iterator	-8.41898
▁clazz	-8.42768
▁cache	-8.42771
▁Node	-8.4292
▁Type	-8.43038
able	-8.43102
▁position	-8.43281
Async	-8.4334
▁number	-8.43622
▁task	-8.43981
▁bytes	-8.44575
▁""	-8.45153
0	-8.45399
e	-8.45406
▁row	-8.4566
View	-8.45773
▁reader	-8.45801
▁>=	-8.45854
▁must	-8.46372
▁ret	-8.46459
▁...	-8.47293
Version	-8.47302
▁root	-8.47365
▁ctx	-8.47428
Stream	-8.47623
RuntimeException	-8.47683
▁one	-8.47974
▁options	-8.48305
Url	-8.48445
▁handle	-8.48592
X	-8.4878
Metadata	-8.48878
id	-8.49094
Source	-8.49199
And	-8.49467
Token	-8.49706
▁version	-8.50021
▁float	-8.5009
▁val	-8.50336
▁substring	-8.50566
▁attribute	-8.50585
▁have	-8.5069
▁buf	-8.50782
Connection	-8.51084
▁parameter	-8.51444
▁k	-8.51614
Text	-8.51733
Options	-8.52129
name	-8.52448
get	-8.52689
▁used	-8.52762
▁getType	-8.52828
▁at	-8.52903
▁Field	-8.53497
Util	-8.5383
▁column	-8.5386
a	-8.53863
▁getKey	-8.54224
Length	-8.54548
▁load	-8.54644
▁json	-8.54715
Task	-8.54836
▁src	-8.55463
▁was	-8.55622
▁synchronized	-8.55622
▁status	-8.55939
▁run	-8.56284
▁copy	-8.56652
▁switch	-8.56814
▁getInstance	-8.57032
▁rule	-8.57391
▁l	-8.57886
▁res	-8.57954
▁min	-8.58439
Action	-8.58885
▁init	-8.58943
▁Entry	-8.58999
▁before	-8.59225
▁util	-8.59901
▁original	-8.60003
▁3	-8.60007
▁tag	-8.60112
▁Returns	-8.60776
▁pos	-8.61051
▁Throwable	-8.61107
▁header	-8.61146
▁listener	-8.613
▁Optional	-8.6145
▁char	-8.6173
Entity	-8.62103
▁command	-8.62438
▁google	-8.63076
p	-8.63115
▁when	-8.6318
C	-8.63539
▁only	-8.63636
L	-8.63682
Mode	-8.63752
Values	-8.63862
▁required	-8.64401
Content	-8.65131
▁getId	-8.65185
▁operation	-8.65374
Code	-8.65418
▁see	-8.65452
▁body	-8.65737
▁Create	-8.66095
Container	-8.66157
Helper	-8.66187
▁old	-8.66384
▁any	-8.66388
▁len	-8.66542
Parameter	-8.66693
Buffer	-8.6673
SuppressWarnings	-8.66809
▁uri	-8.66975
Descriptor	-8.67391
▁empty	-8.67662
▁Math	-8.68548
▁apply	-8.686
▁record	-8.68686
▁<=	-8.68765
▁``	-8.69107
▁base	-8.69134
User	-8.69338
▁|	-8.69925
▁action	-8.7055
▁view	-8.7097
▁match	-8.70995
b	-8.71033
▁HashMap	-8.71098
Header	-8.71217
▁valueOf	-8.71322
▁left	-8.71804
F	-8.71966
Parameters	-8.72457
▁register	-8.72563
▁sub	-8.72862
B	-8.72978
▁component	-8.73024
Session	-8.73326
BINDING	-8.73693
▁hasNext	-8.74365
By	-8.74494
i	-8.74578
Component	-8.74718
▁Method	-8.74759
Function	-8.74935
▁job	-8.75216
Start	-8.75286
▁continue	-8.75323
▁page	-8.75367
Of	-8.75452
▁image	-8.7559
▁4	-8.76068
▁O	-8.76263
▁handler	-8.76432
▁Double	-8.76489
▁function	-8.76735
▁date	-8.76816
▁clear	-8.76832
▁org	-8.76855
Callback	-8.76953
▁split	-8.77187
▁channel	-8.77478
Operation	-8.77597
Server	-8.77761
Offset	-8.78426
▁URL	-8.78438
▁Response	-8.78668
▁right	-8.79019
Reference	-8.79173
Position	-8.79235
Inner	-8.7953
Date	-8.80143
▁local	-8.80288
Writer	-8.80937
▁Element	-8.81014
▁Request	-8.81229
▁num	-8.81232
▁address	-8.8129
▁--	-8.81309
▁container	-8.81625
▁so	-8.81698
▁arg	-8.81844
Y	-8.81916
=	-8.82058
▁Resource	-8.82336
Bytes	-8.82488
Address	-8.82629
▁annotation	-8.82774
TYPE	-8.82886
▁callback	-8.83333
Ref	-8.83377
▁argument	-8.83378
c	-8.84309
▁invoke	-8.84721
Reader	-8.84793
▁g	-8.84995
▁P	-8.85174
▁validate	-8.8518
▁InputStream	-8.8527
▁::	-8.85416
Command	-8.85652
▁LOGGER	-8.86039
▁lock	-8.86105
▁X	-8.86258
▁elements	-8.86327
▁Path	-8.8633
▁order	-8.86349
Number	-8.86384
▁print	-8.86405
T	-8.86634
▁expression	-8.8676
Column	-8.87676
▁IllegalState	-8.87683
▁into	-8.88132
▁Date	-8.8855
Params	-8.88563
▁convert	-8.88668
▁JSON	-8.89276
\	-8.89296
▁awsRequest	-8.89436
▁prefix	-8.89448
Input	-8.89666
▁asyncHandler	-8.89682
Rule	-8.89849
▁w	-8.89859
▁re	-8.90205
▁ID	-8.90217
▁does	-8.90893
Iterator	-8.90919
▁Iterator	-8.90958
▁Collections	-8.90975
▁then	-8.91055
▁attributes	-8.91932
Tag	-8.92029
▁exists	-8.92198
Record	-8.92423
▁but	-8.92595
▁send	-8.93074
▁location	-8.93393
▁project	-8.93402
▁pattern	-8.93422
Attributes	-8.93787
Description	-8.93914
▁getProperty	-8.93961
Invalid	-8.94043
▁"\	-8.94061
▁using	-8.94199
Template	-8.94224
▁width	-8.94288
▁h	-8.94401
Bean	-8.94652
▁make	-8.94888
▁StringUtils	-8.9517
▁sql	-8.95183
▁generate	-8.95225
Or	-8.95251
Types	-8.95314
▁warn	-8.95431
▁factory	-8.95464
▁Nonnull	-8.95506
Location	-8.95561
Annotation	-8.95878
Store	-8.96021
Constants	-8.96195
▁metadata	-8.96223
▁addAll	-8.96331
▁keys	-8.96379
▁getString	-8.9663
▁already	-8.96758
▁lang	-8.96917
Log	-8.97067
▁getCurrent	-8.97132
Channel	-8.97177
Tree	-8.97182
▁document	-8.97299
V	-8.97568
▁block	-8.97833
Dir	-8.98193
▁replace	-8.98217
y	-8.98285
Line	-8.98867
No	-8.99308
P	-8.99352
▁fields	-8.99428
▁there	-8.99443
type	-8.9946
▁resolve	-8.99503
▁matcher	-8.99668
On	-9.00057
▁search	-9.00193
unchecked	-9.00335
Block	-9.00393
Parser	-9.00395
▁host	-9.00557
▁req	-9.00939
Wrapper	-9.0176
Row	-9.01822
Param	-9.01886
Pattern	-9.01953
Document	-9.01959
▁failed	-9.02109
ly	-9.02178
▁bean	-9.02542
▁range	-9.02705
v	-9.02719
▁{}"	-9.03027
▁trace	-9.03035
▁dest	-9.03293
Names	-9.03787
▁Nullable	-9.04331
▁reference	-9.04432
▁after	-9.04658
Update	-9.04927
▁store	-9.04933
Target	-9.04997
▁B	-9.05093
▁label	-9.05254
Image	-9.05278
Collection	-9.05361
▁SdkClient	-9.05403
▁port	-9.05411
Fields	-9.05434
▁isA	-9.05452
▁M	-9.05465
▁may	-9.0569
Base	-9.05861
Range	-9.06045
▁N	-9.06199
▁URI	-9.0677
▁template	-9.06782
Page	-9.06861
▁test	-9.06928
▁schema	-9.07108
▁Message	-9.07218
Settings	-9.0736
▁Context	-9.07881
▁results	-9.07977
Spec	-9.08002
set	-9.08205
▁internal	-9.08295
▁startsWith	-9.08537
▁database	-9.08855
8	-9.09054
▁Abstract	-9.09311
__	-9.09439
VALUE	-9.09499
E	-9.09581
▁visit	-9.09675
Unable	-9.097
▁directory	-9.09773
R	-9.09914
Job	-9.09951
▁ref	-9.0996
▁assert	-9.10089
Output	-9.10133
▁className	-9.10154
Level	-9.10426
▁api	-9.11325
▁parser	-9.11401
▁Property	-9.11426
▁types	-9.11466
▁Arrays	-9.11599
▁containsKey	-9.11709
▁matches	-9.11831
▁height	-9.11951
▁passed	-9.11954
▁D	-9.1207
Format	-9.12082
▁where	-9.12086
m	-9.12403
End	-9.12405
Failed	-9.12598
▁tree	-9.12761
▁returned	-9.12862
▁encode	-9.12981
OutputStream	-9.13014
▁Builder	-9.13046
All	-9.13061
▁point	-9.13179
I	-9.13192
▁nextToken	-9.13225
▁Function	-9.13249
▁Future	-9.13275
64	-9.13649
▁scope	-9.13654
▁Delete	-9.13901
▁thread	-9.13983
▁SQLException	-9.14013
▁actual	-9.14038
▁trim	-9.14211
Str	-9.1424
j	-9.14243
in	-9.14289
;	-9.14595
▁commerce	-9.15053
▁entrySet	-9.15436
▁description	-9.15477
KEY	-9.15518
value	-9.15664
▁accept	-9.1575
▁level	-9.15761
▁collection	-9.15928
▁valid	-9.16018
N	-9.16054
Schema	-9.1608
Statement	-9.16232
▁limit	-9.16422
▁provider	-9.16526
Mapping	-9.16581
URL	-9.16671
Call	-9.16934
▁Describe	-9.1695
▁each	-9.16981
▁been	-9.17024
▁timeout	-9.17061
▁Default	-9.17086
▁application	-9.17554
Keys	-9.17768
▁stop	-9.17939
Access	-9.18017
▁indexOf	-9.18128
▁Log	-9.18164
InputStream	-9.18867
▁open	-9.18953
▁same	-9.18972
Transaction	-9.18991
▁existing	-9.19035
▁non	-9.1905
▁collect	-9.19265
Directory	-9.19583
nyTracingEnabled	-9.19972
▁Update	-9.19973
Registry	-9.19996
▁ch	-9.20383
▁hash	-9.20763
▁z	-9.2112
▁concurrent	-9.21479
▁statement	-9.21575
▁doc	-9.21615
▁need	-9.21764
▁View	-9.21797
▁unmarshall	-9.21803
▁TraceComponent	-9.21893
Point	-9.21989
▁HttpServlet	-9.22159
▁Thread	-9.22172
▁created	-9.22211
es	-9.22347
▁isDebugEnabled	-9.22396
▁total	-9.22467
()	-9.22703
Def	-9.22708
▁Iterable	-9.2273
▁tmp	-9.22738
▁files	-9.22817
▁db	-9.22822
Scope	-9.22979
▁Level	-9.23006
▁Observable	-9.23132
▁ByteBuffer	-9.23222
Queue	-9.23302
▁up	-9.23319
▁DEFAULT	-9.23438
="	-9.23551
▁locale	-9.23708
▁compare	-9.24073
▁resources	-9.24079
▁headers	-9.24166
▁cannot	-9.24299
▁8	-9.24438
▁than	-9.24484
▁xml	-9.24492
▁previous	-9.24503
HandlerContext	-9.24763
Prefix	-9.25474
sRequest	-9.25485
▁pre	-9.25531
▁arguments	-9.25716
M	-9.25812
▁resourceGroup	-9.25912
▁transaction	-9.25924
The	-9.25924
Label	-9.26366
Ids	-9.26618
▁children	-9.26754
▁option	-9.27091
or	-9.27273
▁items	-9.27293
Link	-9.27407
Application	-9.27518
▁op	-9.27582
▁password	-9.27739
Option	-9.27884
▁expected	-9.28078
▁idx	-9.28329
Uri	-9.2833
▁q	-9.28378
▁API	-9.28626
▁available	-9.28853
▁Data	-9.28932
▁charAt	-9.29198
▁Query	-9.29444
▁module	-9.29585
▁queue	-9.29633
Json	-9.29838
Identifier	-9.29925
▁unit	-9.29943
Pos	-9.30207
Enabled	-9.30389
▁HandlerContext	-9.30515
▁Configuration	-9.30708
▁conf	-9.30713
▁since	-9.30869
▁names	-9.30905
▁namespace	-9.31091
▁Stream	-9.31317
);	-9.31365
▁sort	-9.3139
H	-9.31466
▁Attribute	-9.31561
5	-9.31678
Root	-9.31717
Marshaller	-9.31838
▁"/"	-9.32042
Holder	-9.32096
▁app	-9.32255
▁{}	-9.32427
▁variable	-9.32466
▁feature	-9.32496
▁MAX	-9.32857
▁L	-9.3317
▁thrown	-9.3319
Get	-9.3325
Policy	-9.33365
▁now	-9.33467
▁Void	-9.33636
URI	-9.33661
▁J	-9.33681
Match	-9.33745
▁describe	-9.33814
Adapter	-9.33822
▁Document	-9.3404
Width	-9.34121
▁form	-9.34145
Package	-9.34237
▁main	-9.34836
▁"/	-9.34873
Future	-9.3491
▁destination	-9.35073
G	-9.35137
▁access	-9.35221
al	-9.35301
▁exit	-9.35863
▁reset	-9.35882
▁temp	-9.36004
▁include	-9.36423
Panel	-9.36554
▁col	-9.36845
h	-9.37024
Resolver	-9.37315
▁select	-9.37414
▁getAttribute	-9.37556
▁mode	-9.3764
▁active	-9.37717
▁single	-9.3772
Lock	-9.3787
▁<<	-9.37895
▁Interrupted	-9.38034
▁change	-9.38045
▁decode	-9.38087
▁props	-9.38257
▁Expression	-9.38341
▁HashSet	-9.38401
▁attr	-9.38475
▁User	-9.38598
Repository	-9.38771
▁extension	-9.38923
▁second	-9.3921
▁report	-9.39328
▁post	-9.39366
▁extract	-9.39418
▁entries	-9.39463
As	-9.39489
▁Value	-9.3954
Converter	-9.39565
▁execution	-9.39637
Module	-9.39698
▁br	-9.39794
▁Service	-9.39846
▁Key	-9.39867
▁proxy	-9.4002
▁inner	-9.40084
▁save	-9.40118
▁raw	-9.40125
▁fail	-9.4033
▁future	-9.40382
▁transform	-9.40411
▁",	-9.40411
▁system	-9.40492
▁Page	-9.40602
Color	-9.40746
O	-9.40793
Proxy	-9.40958
▁cause	-9.41047
▁bind	-9.41087
32	-9.41135
▁Number	-9.41166
▁Tr	-9.41194
▁'"	-9.41476
isEntryEnabled	-9.41596
▁join	-9.41665
Internal	-9.41855
▁5	-9.419
▁its	-9.41937
▁iter	-9.41938
▁remote	-9.41976
ParentElement	-9.42292
▁more	-9.42348
equalsIgnoreCase	-9.42467
▁insert	-9.4252
▁segment	-9.42753
▁Config	-9.42872
▁Cms	-9.43129
▁H	-9.43444
▁newInstance	-9.43457
▁dst	-9.43523
▁sequence	-9.43767
▁Annotation	-9.44216
Order	-9.44263
▁delegate	-9.44275
is	-9.44288
Thread	-9.44306
▁un	-9.44339
▁fieldName	-9.44571
▁frame	-9.44959
Out	-9.45082
▁cluster	-9.45089
Stack	-9.45218
Handle	-9.4528
▁F	-9.4528
Strategy	-9.4539
▁Client	-9.45667
▁color	-9.45822
▁skip	-9.45824
Read	-9.45923
Interface	-9.45949
Button	-9.46133
▁member	-9.46205
ClassName	-9.46272
Variable	-9.46283
▁part	-9.46558
Logger	-9.46763
▁validation	-9.46839
▁getPath	-9.47066
w	-9.47153
>	-9.47326
Processor	-9.47347
▁mapping	-9.47439
▁nodes	-9.47481
At	-9.47635
▁added	-9.477
▁defaultValue	-9.47745
Extension	-9.47857
Part	-9.47987
>"	-9.48
▁dir	-9.48113
Args	-9.48283
▁show	-9.4832
Stats	-9.48394
▁provided	-9.48637
Int	-9.48738
Timeout	-9.48931
▁endpoint	-9.48943
▁protobuf	-9.4899
▁stack	-9.49139
▁push	-9.49166
Generator	-9.49194
Style	-9.49407
▁optional	-9.49891
MetaData	-9.49917
W	-9.49975
▁ignore	-9.50198
Unit	-9.50203
▁predicate	-9.50211
▁XML	-9.50325
file	-9.50418
▁short	-9.50525
Information	-9.50777
)"	-9.50811
▁Http	-9.5118
▁Base	-9.51215
u	-9.51243
("	-9.51373
Frame	-9.51385
▁encoding	-9.51388
▁Calendar	-9.51425
▁Connection	-9.5145
▁called	-9.51605
▁var	-9.51652
▁NonNull	-9.51654
Default	-9.51822
Mapper	-9.51939
▁objects	-9.52265
▁merge	-9.52418
▁conn	-9.52637
J	-9.5267
▁testExpression	-9.52753
▁U	-9.5281
l	-9.52872
?	-9.53139
re	-9.53254
Feature	-9.53256
▁initialize	-9.53306
▁amazonaws	-9.53311
▁Add	-9.53451
Body	-9.53567
Api	-9.53576
▁Event	-9.53655
▁io	-9.53712
▁you	-9.53834
Layout	-9.5406
Height	-9.541
Classes	-9.54159
:"	-9.54422
▁Properties	-9.54493
▁account	-9.54779
▁JSONObject	-9.54982
▁http	-9.55126
New	-9.55201
▁prop	-9.55346
▁rs	-9.5539
▁Token	-9.55444
▁cursor	-9.55465
▁top	-9.5549
▁settings	-9.55518
▁Task	-9.55623
sResult	-9.55752
▁fileName	-9.55843
▁methods	-9.56019
▁bundle	-9.56169
▁begin	-9.56249
▁batch	-9.56421
▁toArray	-9.56535
ED	-9.56626
▁custom	-9.56726
Check	-9.5675
▁10	-9.56816
System	-9.56917
Files	-9.56984
Not	-9.57003
▁identifier	-9.57135
▁ServiceResponse	-9.57237
data	-9.57275
o	-9.57447
▁step	-9.57464
k	-9.57539
com	-9.57633
Obj	-9.57803
K	-9.57924
]	-9.57926
▁asList	-9.57926
▁Point	-9.57965
▁mapper	-9.58062
▁err	-9.58148
Port	-9.58155
ClientExecution	-9.58337
▁W	-9.58347
▁payload	-9.58517
▁forEach	-9.58547
Sub	-9.58549
▁partition	-9.58556
Pool	-9.58743
▁just	-9.58785
▁keySet	-9.58847
▁cur	-9.58855
SIZE	-9.59218
▁SibTr	-9.59266
Serializer	-9.59294
▁definition	-9.59372
Project	-9.59418
▁protocol	-9.59418
key	-9.59478
Nodes	-9.5949
▁columns	-9.59564
▁printStackTrace	-9.60276
▁methodName	-9.60325
Execution	-9.60407
▁TYPE	-9.60678
Len	-9.60948
Write	-9.61096
▁style	-9.6118
▁username	-9.61201
▁executor	-9.61202
▁ByteArray	-9.61229
▁otherwise	-9.61274
Authentication	-9.61543
▁expr	-9.61544
▁prev	-9.61587
Controller	-9.61627
▁Constants	-9.61689
▁tokens	-9.61753
▁title	-9.61812
Notification	-9.61837
▁because	-9.61879
6	-9.62103
▁constructor	-9.62123
Elements	-9.62124
▁script	-9.62144
▁off	-9.62196
▁Result	-9.62291
▁storage	-9.62338
Form	-9.62341
Engine	-9.62389
to	-9.62413
▁".	-9.62481
▁getContext	-9.62527
▁filename	-9.6255
▁information	-9.62553
Cannot	-9.62659
Database	-9.62699
Local	-9.62727
Hash	-9.62735
Details	-9.6275
▁Server	-9.6276
▁getParent	-9.62818
▁metrics	-9.62979
executionContext	-9.6298
Parent	-9.63062
▁Locale	-9.63073
▁classes	-9.63159
▁Creates	-9.63247
out	-9.63277
▁G	-9.63416
Executor	-9.63615
▁cloud	-9.63681
▁Internal	-9.63915
Num	-9.64112
▁u	-9.64116
Entries	-9.6418
▁supported	-9.64463
▁manager	-9.6454
Z	-9.64579
▁could	-9.64707
▁my	-9.6475
▁getDefault	-9.64761
▁compute	-9.64786
▁li	-9.64882
Items	-9.64942
Child	-9.64984
▁Simple	-9.65048
Summary	-9.65077
▁flush	-9.65173
▁INSTANCE	-9.65198
Meta	-9.65272
ationException	-9.65358
▁Job	-9.65423
Segment	-9.65511
▁complete	-9.65547
▁ensure	-9.65588
z	-9.65868
▁TODO	-9.65903
▁finalRequest	-9.66097
Val	-9.66227
▁layout	-9.66299
▁Table	-9.66312
▁resp	-9.6642
Host	-9.66429
Max	-9.66475
▁handlers	-9.66664
▁matching	-9.66673
▁full	-9.66788
Process	-9.66931
▁BigDecimal	-9.66992
▁TimeUnit	-9.67003
Var	-9.67167
▁Entity	-9.67245
Loader	-9.67288
▁plugin	-9.6729
class	-9.67294
Expr	-9.67329
Marshalling	-9.67378
Endpoint	-9.67439
▁ModelNode	-9.6759
▁>>	-9.67691
ClassLoader	-9.67697
▁Character	-9.67729
▁activity	-9.6775
Char	-9.67926
▁wrap	-9.68085
Change	-9.68209
▁removed	-9.68286
▁selected	-9.68374
no	-9.68402
▁setValue	-9.6846
▁Check	-9.68494
▁descriptor	-9.68618
▁Java	-9.68782
Next	-9.68833
▁tx	-9.69012
▁initial	-9.69217
▁Status	-9.69287
▁We	-9.69323
Resources	-9.69422
Sequence	-9.69429
Condition	-9.69569
li	-9.69581
!"	-9.69665
▁owner	-9.69756
▁"<	-9.69788
▁timestamp	-9.69793
▁errors	-9.69796
▁State	-9.69938
▁/*	-9.69942
▁cp	-9.69949
▁exist	-9.69962
▁getSimpleName	-9.6998
Counter	-9.70263
Member	-9.70524
▁environment	-9.70532
▁condition	-9.70587
on	-9.7068
▁graph	-9.70687
▁lookup	-9.70815
▁groupId	-9.7123
log	-9.71321
▁fetch	-9.71325
Control	-9.71436
Storage	-9.71533
Role	-9.71591
▁scale	-9.7176
(...)"	-9.71829
Long	-9.71859
▁containing	-9.7192
▁getAll	-9.71929
▁env	-9.72042
▁Operation	-9.72086
▁rows	-9.72132
▁character	-9.72316
Step	-9.72348
XML	-9.7245
Plugin	-9.72475
▁jj	-9.7261
▁pool	-9.72625
First	-9.72626
▁HTTP	-9.72698
lang	-9.72724
▁UnsupportedOper	-9.72993
://	-9.73007
▁getData	-9.73178
▁here	-9.73465
▁"."	-9.73503
Matcher	-9.73503
Graph	-9.73702
Folder	-9.7385
Declaration	-9.73851
▁compareTo	-9.73895
Support	-9.73915
org	-9.74203
Could	-9.74472
Selector	-9.74743
▁getResource	-9.74778
▁Tag	-9.74829
Report	-9.74833
▁meta	-9.74919
Binding	-9.74955
▁"'	-9.75007
▁two	-9.75043
▁parts	-9.75104
Batch	-9.75404
▁Application	-9.7544
▁cached	-9.75495
▁clone	-9.75572
Is	-9.75664
▁domain	-9.75704
▁commit	-9.75917
▁repository	-9.76249
ExecutionContext	-9.76288
▁cell	-9.76471
▁propertyName	-9.76582
Consumer	-9.76826
Search	-9.76831
▁bucket	-9.76859
▁Array	-9.76943
▁tableName	-9.76965
▁Cache	-9.77003
▁Session	-9.77026
Create	-9.77035
▁Name	-9.77058
IN	-9.77065
▁render	-9.77133
Activity	-9.77213
▁Gets	-9.77313
java	-9.77359
▁def	-9.774
▁serialize	-9.77405
▁messages	-9.77591
▁tags	-9.77607
▁consumer	-9.77829
▁Component	-9.77917
Interval	-9.78055
▁Float	-9.78069
Headers	-9.7808
▁chain	-9.78091
Password	-9.78127
▁word	-9.7818
▁package	-9.78281
▁Parameter	-9.78294
▁getBytes	-9.78354
▁cls	-9.78502
▁metric	-9.7864
▁toLowerCase	-9.7866
Delete	-9.78981
▁subject	-9.79095
Test	-9.79141
▁parseInt	-9.79157
ERROR	-9.79161
▁6	-9.79162
▁device	-9.79215
▁Vector	-9.79227
▁endsWith	-9.79234
▁defined	-9.79255
▁registry	-9.79322
▁edge	-9.79379
▁duration	-9.7952
list	-9.79664
▁checkNotNull	-9.7972
▁sum	-9.7981
▁scan	-9.7982
▁Image	-9.80044
Left	-9.80045
▁work	-9.80209
▁auth	-9.80243
Doc	-9.80298
▁submit	-9.80324
▁StringBuffer	-9.80329
▁parsed	-9.80381
7	-9.80385
Profile	-9.80822
▁socket	-9.80825
▁Json	-9.81075
Script	-9.8125
▁invalid	-9.81253
▁counter	-9.81396
isAssignableFrom	-9.814
▁global	-9.81404
▁Transaction	-9.81405
▁done	-9.81431
Columns	-9.81447
▁END	-9.81514
If	-9.81531
▁fill	-9.81602
%	-9.8178
▁SQL	-9.81793
Last	-9.82067
▁Pattern	-9.82113
whether	-9.82168
▁Filter	-9.82208
▁configure	-9.82279
▁Action	-9.82341
beta	-9.82413
▁authentication	-9.82442
null	-9.82501
▁role	-9.82674
10	-9.82872
▁*/	-9.82992
Environment	-9.83127
App	-9.83225
Dialog	-9.83507
▁Bean	-9.83684
▁encoded	-9.83759
▁Sets	-9.83962
xml	-9.8398
▁matrix	-9.83986
Permission	-9.84132
▁signature	-9.84265
▁Text	-9.843
Only	-9.8435
▁updated	-9.84358
▁OutputStream	-9.84432
▁Runnable	-9.84441
▁cmd	-9.84493
▁protocolFactory	-9.84537
▁random	-9.84538
▁getText	-9.84778
▁remaining	-9.84894
▁Messages	-9.84955
▁uuid	-9.84957
▁For	-9.84976
ompletableFuture	-9.84998
▁interval	-9.85077
Registration	-9.85213
▁profile	-9.85325
if	-9.85436
JsonUnmarshaller	-9.85826
Visitor	-9.85859
▁release	-9.86012
▁pipeline	-9.86207
en	-9.86211
▁policy	-9.86225
Idx	-9.86284
Xml	-9.86314
▁Invalid	-9.86353
▁gt	-9.86516
▁example	-9.86603
path	-9.86657
▁network	-9.86816
▁Error	-9.86947
▁GET	-9.87147
Window	-9.87226
OBJECT	-9.87233
▁Command	-9.87264
▁Model	-9.87404
pre	-9.87499
Missing	-9.87637
▁loader	-9.87652
▁runtime	-9.87835
▁listeners	-9.87857
▁Tuple	-9.87932
size	-9.88295
Limit	-9.88384
▁window	-9.88426
Certificate	-9.88491
▁setProperty	-9.88639
Predicate	-9.88687
▁notNull	-9.88706
▁cancel	-9.88808
JSON	-9.88838
Add	-9.89
▁0.0	-9.89017
Changed	-9.89075
ING	-9.89246
▁os	-9.89274
▁spec	-9.89389
Vector	-9.89525
▁allowed	-9.89527
U	-9.89535
History	-9.89555
▁some	-9.89647
▁inputStream	-9.8978
Copy	-9.89973
Op	-9.90023
▁isPresent	-9.90047
Matrix	-9.90075
▁allow	-9.90344
▁separator	-9.90563
▁exchange	-9.90583
▁UUID	-9.90614
▁registered	-9.90681
▁alias	-9.9076
Cluster	-9.90771
Vertex	-9.90794
▁NotNull	-9.90806
▁additional	-9.90835
Bundle	-9.90968
Byte	-9.91008
Category	-9.91084
▁success	-9.91229
▁being	-9.91261
▁Note	-9.91574
Results	-9.91671
▁verify	-9.918
Argument	-9.91994
http	-9.92098
▁responseHandler	-9.9217
▁NullPointer	-9.92333
▁head	-9.9241
opLambda	-9.92449
Device	-9.92453
▁pair	-9.92505
▁controller	-9.92583
▁connect	-9.92836
▁changed	-9.92896
▁possible	-9.92983
▁prepare	-9.93085
Methods	-9.9322
Account	-9.93254
Listeners	-9.93413
▁16	-9.93468
Enum	-9.93503
▁getAnnotation	-9.93519
▁Callable	-9.93553
▁lt	-9.93632
▁Build	-9.93643
▁term	-9.93879
▁engine	-9.93983
▁Variable	-9.93991
Fragment	-9.93995
▁In	-9.94071
▁Process	-9.94165
Null	-9.94178
▁It	-9.94288
▁distance	-9.94711
▁region	-9.94836
▁SdkInternal	-9.94858
After	-9.94898
▁between	-9.95018
▁generated	-9.95103
▁setName	-9.95129
▁requested	-9.95219
▁"%	-9.95384
▁NOT	-9.95398
▁back	-9.95506
▁based	-9.95575
▁flags	-9.95616
▁shutdown	-9.95663
▁Predicate	-9.95787
Subscription	-9.95815
rderByComparator	-9.95872
▁AsyncHandler	-9.95901
Domain	-9.95997
Encoding	-9.96048
▁startEvent	-9.96197
▁stmt	-9.96239
▁enabled	-9.9628
▁deserialize	-9.96375
Space	-9.96388
ic	-9.96393
Children	-9.96474
Box	-9.96486
▁Preconditions	-9.96491
Title	-9.96553
▁self	-9.96649
▁retrieve	-9.96864
▁binding	-9.9701
▁ClassNotFound	-9.9713
▁notify	-9.9725
▁KEY	-9.97317
▁charset	-9.974
▁EMPTY	-9.97464
▁topic	-9.97567
Timestamp	-9.978
▁ClassLoader	-9.97805
Metric	-9.97836
Operator	-9.97915
▁implementation	-9.98019
▁finish	-9.98024
▁display	-9.98116
▁resolved	-9.98348
Supplier	-9.98567
Tags	-9.98568
urrentTimeMillis	-9.98664
▁Runtime	-9.98768
Arguments	-9.98775
time	-9.9885
▁cl	-9.98986
▁RequestMarshall	-9.99081
▁serviceName	-9.99182
▁Color	-9.99215
▁closed	-9.99325
▁candidate	-9.99368
▁Pair	-9.99375
Groups	-9.99377
index	-9.99377
Msg	-9.99473
▁product	-9.99486
▁associated	-9.99528
▁converter	-9.99577
Desc	-9.99592
▁Use	-9.99603
▁running	-9.99613
!	-9.99649
▁getMethod	-9.99666
▁CharSequence	-9.99744
Edge	-9.99858
▁Servlet	-9.9998
▁equal	-10
Current	-10.0014
▁artifact	-10.0037
▁vertex	-10.004
Right	-10.0041
Q	-10.0046
▁memory	-10.0046
▁sorted	-10.0047
▁Repository	-10.0048
Failure	-10.0051
Sql	-10.0056
▁maximum	-10.0057
▁pc	-10.0058
▁requireNonNull	-10.0058
▁mark	-10.0061
▁wait	-10.0063
api	-10.0072
▁Column	-10.0079
▁throwable	-10.0086
Snapshot	-10.0087
▁without	-10.0089
_0	-10.0091
▁language	-10.01
▁Bundle	-10.0102
▁Schema	-10.0109
▁adapter	-10.0115
▁control	-10.0116
ER	-10.0119
▁annotations	-10.0134
ResponseAsync	-10.014
Validation	-10.0147
▁ds	-10.0147
▁getInt	-10.0149
▁don	-10.016
▁Project	-10.0166
▁7	-10.0168
▁comparator	-10.0171
Namespace	-10.0191
WithService	-10.0193
▁Return	-10.0202
▁getField	-10.0214
▁route	-10.022
▁failure	-10.022
▁getAbsolutePath	-10.0227
▁wrapped	-10.0231
▁evaluate	-10.0234
▁web	-10.0237
Chain	-10.0241
▁newValue	-10.0247
▁cast	-10.0255
Dto	-10.0265
▁","	-10.0267
Constraint	-10.027
▁DateTime	-10.0283
▁No	-10.0285
▁getRequest	-10.0295
Identity	-10.0297
Statistics	-10.0313
▁st	-10.032
▁unique	-10.0322
▁Channel	-10.0326
▁amount	-10.034
▁setText	-10.0356
Validator	-10.0364
Constructor	-10.0365
▁delta	-10.0368
▁operator	-10.0369
▁stats	-10.0388
▁UTF	-10.0388
map	-10.0393
▁HttpResponse	-10.0396
CONFIG	-10.0398
▁present	-10.04
▁loop	-10.0401
Pair	-10.0406
▁onError	-10.0416
▁getObject	-10.0419
▁Database	-10.0429
▁dependency	-10.0437
Formatter	-10.044
▁Rule	-10.0443
▁points	-10.0443
▁primary	-10.0445
▁arraycopy	-10.0465
NotFound	-10.0467
Protocol	-10.0469
▁also	-10.0473
▁ids	-10.0485
Arg	-10.0485
▁support	-10.0489
▁calculate	-10.0495
▁cms	-10.0512
▁shape	-10.0521
▁atom	-10.0524
add	-10.0539
Cell	-10.0544
▁perform	-10.0566
▁1.0	-10.057
▁interface	-10.0577
Variables	-10.0579
Runtime	-10.059
Run	-10.06
▁real	-10.0601
▁trigger	-10.0621
▁chunk	-10.0624
▁getTime	-10.0626
▁notification	-10.063
▁driver	-10.0647
▁Collectors	-10.0648
▁JsonObject	-10.065
Select	-10.0651
▁schedule	-10.0663
Region	-10.0667
▁ParseException	-10.0669
▁VALUE	-10.068
▁successful	-10.0689
▁desc	-10.0691
Annotations	-10.0694
▁variables	-10.0697
▁characters	-10.0698
▁ImmutableList	-10.0717
▁timer	-10.0734
▁Content	-10.0735
▁bit	-10.0743
▁setAttribute	-10.0758
...	-10.0759
Specification	-10.0761
UTF	-10.0767
▁want	-10.0773
▁Util	-10.0779
▁within	-10.0782
▁TAG	-10.0785
▁ignored	-10.0797
▁getSource	-10.0799
Alias	-10.0809
▁":"	-10.0809
▁indent	-10.0809
▁LinkedList	-10.0812
▁compile	-10.0818
▁wrapper	-10.0825
table	-10.0832
▁ele	-10.0832
▁arr	-10.0841
▁move	-10.0844
▁over	-10.0847
▁dialog	-10.0852
▁"'"	-10.0881
Signature	-10.0889
create	-10.0897
▁curr	-10.0899
16	-10.0899
_1	-10.0914
▁folder	-10.0919
▁sync	-10.0929
max	-10.0934
▁cookie	-10.0941
Unknown	-10.0944
Load	-10.0951
▁progress	-10.0968
Literal	-10.0973
▁Record	-10.0978
Http	-10.0982
ARRAY	-10.0984
Double	-10.0996
Auth	-10.0996
▁toList	-10.0997
▁contain	-10.1004
Flow	-10.1009
▁mozu	-10.1017
end	-10.1019
▁they	-10.1031
▁FIELD	-10.1032
▁classLoader	-10.1047
Props	-10.1049
text	-10.1072
▁html	-10.1073
▁during	-10.1074
▁layer	-10.1076
▁button	-10.1094
▁configured	-10.1095
Symbol	-10.1101
▁Func	-10.1118
▁events	-10.1125
▁enable	-10.1126
▁checkArgument	-10.1127
▁fails	-10.114
▁fire	-10.1141
Build	-10.1148
▁Generate	-10.1149
▁such	-10.1162
▁flow	-10.1178
▁serializer	-10.1178
▁fragment	-10.1195
▁comment	-10.1203
▁snapshot	-10.1218
▁1000	-10.1218
▁named	-10.1221
FileName	-10.1222
▁subscription	-10.1225
Bucket	-10.123
▁Statement	-10.1245
io	-10.1249
11	-10.1252
▁Index	-10.1256
▁zero	-10.1261
[	-10.1267
Events	-10.1285
000	-10.1287
▁contentType	-10.129
▁space	-10.1296
▁export	-10.1297
Col	-10.1317
Authorization	-10.1318
PREFIX	-10.1336
▁getUser	-10.1338
Bounds	-10.1355
▁specific	-10.1358
▁generator	-10.1363
▁tuple	-10.1374
▁Instance	-10.1382
▁import	-10.1391
▁constraint	-10.1405
▁exp	-10.1438
▁Row	-10.1441
▁bound	-10.1444
TO	-10.1453
OF	-10.1457
Usage	-10.1459
▁visitor	-10.1481
Driver	-10.1485
▁bounds	-10.1488
▁isValid	-10.1496
▁score	-10.1496
▁tile	-10.1509
th	-10.151
▁Group	-10.1514
▁")"	-10.1517
▁async	-10.1518
▁$	-10.152
Messages	-10.1522
▁setup	-10.1523
▁Invocation	-10.1525
▁vector	-10.1549
service	-10.155
Partition	-10.1554
▁addParameter	-10.1559
Empty	-10.1562
▁>>>	-10.1571
▁ns	-10.1575
▁pending	-10.158
▁algorithm	-10.1588
▁binary	-10.1608
Re	-10.161
Comparator	-10.1614
▁sent	-10.1617
Invocation	-10.1626
Span	-10.1636
▁simple	-10.1645
▁attrs	-10.1659
▁category	-10.1667
▁identity	-10.167
DataSource	-10.1674
Assignment	-10.1677
Binary	-10.168
▁permission	-10.1682
▁IllegalAccess	-10.1691
▁them	-10.1693
▁ERROR	-10.17
▁instances	-10.1704
▁criteria	-10.1722
One	-10.1725
▁bits	-10.1734
▁Matcher	-10.1735
Cursor	-10.1737
▁icon	-10.1744
▁getElement	-10.175
Remote	-10.1756
▁through	-10.1761
ul	-10.1766
Un	-10.1769
PATH	-10.1778
Plan	-10.179
▁security	-10.1804
Optional	-10.1809
▁Execution	-10.1814
▁Matrix	-10.1817
▁sure	-10.1817
user	-10.182
▁lines	-10.1824
▁groups	-10.1825
▁mask	-10.1825
Term	-10.1829
▁selector	-10.1836
▁comp	-10.1836
Destination	-10.1851
▁executorService	-10.1867
▁multi	-10.1876
▁formatter	-10.1882
CLASS	-10.1902
▁Byte	-10.1909
▁unlock	-10.1922
▁instead	-10.1922
▁Feature	-10.1926
Chunk	-10.1933
▁iv	-10.1936
pos	-10.1936
DB	-10.1942
Pointer	-10.1947
▁Time	-10.1953
▁both	-10.1965
Selection	-10.1969
ResponseHandler	-10.1971
▁`	-10.1978
18	-10.1981
of	-10.1983
▁getStatus	-10.1986
▁exec	-10.1986
▁holder	-10.1992
▁getFile	-10.1993
NOT	-10.1996
Found	-10.1999
▁userId	-10.2001
▁ip	-10.2003
▁NO	-10.2008
Dao	-10.2013
▁never	-10.2026
error	-10.2029
▁either	-10.2033
EClass	-10.2036
▁Item	-10.2036
▁codeString	-10.2039
▁flag	-10.2041
▁retry	-10.2041
▁always	-10.2044
▁Logger	-10.2049
▁Search	-10.2055
▁missing	-10.2057
▁panel	-10.2075
▁suffix	-10.2077
▁modified	-10.208
ion	-10.2082
▁Assert	-10.2085
Detail	-10.2085
Credentials	-10.2087
▁Utils	-10.2089
Mask	-10.209
▁determine	-10.2092
▁span	-10.2105
▁getX	-10.2109
sFor	-10.2112
▁javax	-10.2115
▁symbol	-10.2123
▁Call	-10.2124
Instances	-10.2128
un	-10.2129
▁LA	-10.2132
▁common	-10.214
▁lower	-10.2141
Buf	-10.2146
▁fs	-10.2148
Open	-10.2148
▁calendar	-10.2152
Objects	-10.2153
▁multiple	-10.2159
▁period	-10.2173
▁like	-10.2176
it	-10.2176
Init	-10.2178
▁occurs	-10.2185
Single	-10.2194
▁login	-10.2196
▁extra	-10.22
<	-10.2201
▁strategy	-10.2203
▁agent	-10.221
▁SERVICE	-10.2217
Security	-10.2219
Rules	-10.2223
▁addr	-10.2234
Min	-10.2235
▁external	-10.2247
Active	-10.2248
▁gen	-10.2249
Case	-10.225
▁invocation	-10.2256
an	-10.226
▁processing	-10.2269
▁origin	-10.2278
Duration	-10.2278
▁chars	-10.2286
▁START	-10.2292
▁getService	-10.2295
Interceptor	-10.2306
▁getVersion	-10.2307
▁forName	-10.2314
Diff	-10.2325
▁ws	-10.2331
Definitions	-10.2348
▁would	-10.2354
Timer	-10.2358
Icon	-10.2369
▁auto	-10.2381
▁generic	-10.2386
▁Authentication	-10.2391
▁NULL	-10.2411
▁Objects	-10.2413
Trace	-10.2414
▁getTarget	-10.242
▁stored	-10.2424
▁priority	-10.2427
▁Read	-10.2441
▁getLength	-10.2444
Word	-10.2453
/"	-10.2457
start	-10.2463
▁CLASS	-10.2467
▁Recognition	-10.2472
st	-10.2473
▁increment	-10.2486
▁Bind	-10.2489
Layer	-10.2495
▁getUnmarshaller	-10.2496
▁Web	-10.2499
Network	-10.2501
▁geometry	-10.2503
▁getParameter	-10.2519
20	-10.2524
▁integer	-10.2532
+	-10.2541
▁jcas	-10.2558
▁mv	-10.2571
ToString	-10.2573
▁'%	-10.2575
q	-10.2579
Transformer	-10.2586
▁axis	-10.2591
▁currentThread	-10.2593
▁reason	-10.2595
▁Parse	-10.2596
▁contents	-10.26
NULL	-10.2601
▁servlet	-10.2602
▁BufferedReader	-10.2606
▁until	-10.2608
Boolean	-10.2609
Tasks	-10.261
▁section	-10.262
▁email	-10.2628
▁draw	-10.2632
▁getMax	-10.264
▁needed	-10.2648
Split	-10.265
FILE	-10.2657
▁onSuccess	-10.2663
▁ResultSet	-10.2668
▁elem	-10.2674
▁getConfig	-10.2674
▁100	-10.2677
▁replaceAll	-10.268
LENGTH	-10.2687
Score	-10.2695
Codec	-10.2697
▁relative	-10.2697
▁Adds	-10.2698
Principal	-10.2703
▁tasks	-10.2705
▁best	-10.2708
▁stage	-10.2722
Topic	-10.2727
▁columnName	-10.2744
▁Block	-10.2747
▁relation	-10.2751
Memory	-10.2758
Before	-10.276
▁getContent	-10.2761
This	-10.2763
▁force	-10.2765
Non	-10.2765
▁depth	-10.277
Monitor	-10.2773
▁different	-10.2783
▁getNext	-10.2791
Java	-10.2808
ip	-10.2811
▁sample	-10.2815
▁override	-10.2815
▁selection	-10.2831
▁ll	-10.2831
Route	-10.2831
▁rules	-10.2836
▁another	-10.2843
Delegate	-10.2844
▁ApiException	-10.2846
▁represent	-10.2849
▁intent	-10.2857
Up	-10.2867
Payload	-10.2882
▁checked	-10.2883
▁changes	-10.2885
Period	-10.2906
AsString	-10.2907
▁emptyList	-10.2915
Attr	-10.2919
▁down	-10.292
▁abs	-10.2923
▁features	-10.2929
column	-10.293
▁day	-10.2936
Paths	-10.2937
▁diff	-10.2938
▁newBuilder	-10.2941
▁pop	-10.2946
▁tt	-10.295
▁Source	-10.2951
▁resolver	-10.2953
▁supplied	-10.2955
▁getLog	-10.2956
▁intValue	-10.2959
▁Address	-10.2966
count	-10.2972
▁Container	-10.2974
▁getFirst	-10.2992
db	-10.2993
▁caller	-10.3002
Import	-10.3002
▁MediaType	-10.3005
▁Types	-10.3021
▁Template	-10.3024
▁year	-10.3027
▁escape	-10.3032
▁per	-10.3036
▁pass	-10.3036
this	-10.3052
▁NAME	-10.3052
▁em	-10.3052
▁POST	-10.3059
▁about	-10.3059
client	-10.306
Web	-10.3064
00	-10.3064
▁An	-10.3066
IO	-10.3078
▁Storage	-10.3078
|	-10.3084
▁exceptions	-10.3087
▁opt	-10.3088
▁":	-10.3088
Pipeline	-10.3088
Custom	-10.3089
Close	-10.309
▁Security	-10.3091
Permissions	-10.3101
Collector	-10.3114
▁ifc	-10.3121
▁peek	-10.3123
▁IN	-10.3128
▁getWidth	-10.3129
Sync	-10.3133
▁transport	-10.3137
Res	-10.314
▁getLong	-10.3147
▁Batch	-10.3148
Complete	-10.3151
Artifact	-10.3152
html	-10.3153
xFF	-10.3163
▁xmlEvent	-10.3171
▁menu	-10.3189
line	-10.3193
▁our	-10.3208
▁deleted	-10.3211
▁deployment	-10.3212
▁iterable	-10.3214
▁box	-10.3226
-8"	-10.3236
▁paths	-10.3238
Section	-10.3243
▁warning	-10.3247
▁site	-10.3248
xff	-10.3251
▁operations	-10.3253
SQL	-10.3255
▁loaded	-10.3261
▁typeName	-10.3262
Remove	-10.3264
▁isSet	-10.3276
resource	-10.3287
length	-10.3309
LOGGER	-10.3314
CODE	-10.3315
▁credentials	-10.3318
▁zip	-10.3323
Db	-10.3324
Available	-10.333
▁representation	-10.3336
▁writeInt	-10.334
ar	-10.3342
Flag	-10.3343
▁REST	-10.3344
ation	-10.335
Proto	-10.3352
Editor	-10.3377
▁BigInteger	-10.338
▁Api	-10.3385
Flags	-10.3392
Deployment	-10.3414
▁delay	-10.3419
▁DB	-10.3434
▁calling	-10.3437
▁ServiceFuture	-10.3438
▁"\"	-10.3443
▁kind	-10.3448
token	-10.3449
▁refresh	-10.3449
▁md	-10.3454
▁slot	-10.3469
▁grid	-10.3474
\"	-10.3477
).	-10.3481
]"	-10.3482
▁tab	-10.3484
▁Consumer	-10.3488
Conf	-10.3489
▁principal	-10.3494
Rows	-10.3494
▁components	-10.3499
▁Input	-10.35
Encoder	-10.3511
▁started	-10.3518
▁details	-10.3519
_2	-10.3528
▁Start	-10.3533
Post	-10.3543
Capacity	-10.3553
OR	-10.3563
▁ok	-10.3575
▁converted	-10.3578
▁alt	-10.3585
▁getState	-10.3588
▁getLastParsed	-10.3597
▁plan	-10.3599
▁Pr	-10.3603
▁INDArray	-10.3608
▁ps	-10.3617
Commit	-10.362
true	-10.3625
▁Deprecated	-10.3633
Comment	-10.3643
▁jar	-10.3656
▁Put	-10.3657
▁usage	-10.3674
▁lastIndexOf	-10.3675
▁needs	-10.3685
▁attributeName	-10.3686
▁NumberFormat	-10.3688
▁received	-10.3691
▁primitive	-10.3695
util	-10.3696
tt	-10.3698
TIME	-10.3705
▁cb	-10.3706
▁-=	-10.3706
Per	-10.3711
Shape	-10.3713
▁upload	-10.3716
12	-10.3717
▁nested	-10.3717
▁rel	-10.3718
API	-10.3721
▁getHeight	-10.3736
▁getConnection	-10.3739
Can	-10.3745
▁getCause	-10.3748
Rate	-10.3755
▁Tree	-10.3756
Top	-10.3761
Simple	-10.3769
Millis	-10.3771
▁getEntity	-10.3772
json	-10.3775
Html	-10.3783
▁packageName	-10.3788
Required	-10.379
google	-10.3796
sBy	-10.3811
▁FileInputStream	-10.3815
Full	-10.3819
▁starting	-10.382
▁dataSource	-10.3822
▁seconds	-10.3823
▁master	-10.3829
Locale	-10.3836
▁InternalXbase	-10.3836
▁Short	-10.3837
▁tail	-10.3852
▁Option	-10.3852
▁month	-10.3863
Tx	-10.3865
▁putAll	-10.3866
Widget	-10.3874
Integer	-10.3885
▁"]"	-10.3894
▁rest	-10.3896
▁following	-10.3903
▁eval	-10.3904
▁getComponent	-10.3907
Agent	-10.3912
Extractor	-10.3917
▁codec	-10.3924
▁Remove	-10.3924
}"	-10.3933
group	-10.3945
op	-10.3947
Services	-10.3952
FIELD	-10.3954
▁zone	-10.3954
StaxUnmarshaller	-10.3958
▁Output	-10.3971
Exp	-10.3987
▁weight	-10.3989
Finder	-10.3998
▁featureID	-10.4002
▁your	-10.4007
Iter	-10.4008
Progress	-10.401
▁least	-10.4016
▁shared	-10.4026
Lookup	-10.403
▁bb	-10.404
Seq	-10.4042
▁upper	-10.4043
();	-10.4044
▁history	-10.4044
▁install	-10.4049
▁JAXBElement	-10.405
▁Write	-10.4064
NON	-10.4064
Valid	-10.4068
_8	-10.4071
▁Validation	-10.4072
▁services	-10.4085
Admin	-10.4097
▁convertTo	-10.4098
▁getSession	-10.4099
new	-10.4103
Product	-10.4107
▁Geometry	-10.4109
Constant	-10.4113
Servlet	-10.4114
Join	-10.4119
Decoder	-10.4122
▁admin	-10.4122
▁Cluster	-10.4123
▁getIndex	-10.4125
▁cc	-10.4127
▁Version	-10.4147
Parts	-10.4161
▁Modifier	-10.4182
▁bitmap	-10.4185
▁worker	-10.4186
▁Test	-10.4189
AL	-10.419
Dependency	-10.4194
▁Activity	-10.4197
version	-10.4198
Operations	-10.4203
▁strings	-10.4206
▁dataset	-10.4207
Scan	-10.4212
▁Reference	-10.4219
▁digest	-10.4235
▁answer	-10.4242
▁|=	-10.4242
▁toByteArray	-10.4245
Owner	-10.4255
▁Intent	-10.4258
local	-10.426
▁segments	-10.426
Processing	-10.4261
▁mapped	-10.4271
▁initialized	-10.4271
TAG	-10.4275
▁getClassLoader	-10.4278
▁alpha	-10.4282
Points	-10.4283
▁problem	-10.4284
Suffix	-10.4285
stream	-10.4291
▁capacity	-10.4291
▁editor	-10.4304
▁completed	-10.4315
DATA	-10.4315
Trigger	-10.4316
TypeName	-10.4318
Management	-10.4323
▁Metric	-10.4324
▁literal	-10.4326
min	-10.4331
▁kernel	-10.4332
Kind	-10.4335
Setting	-10.4341
Revision	-10.4342
▁getChildren	-10.4342
▁hashCode	-10.4345
Deep	-10.4347
STRING	-10.4358
▁de	-10.4364
▁UI	-10.4365
▁sleep	-10.4372
▁processed	-10.4379
server	-10.4381
▁underlying	-10.4383
▁Range	-10.4387
reparedStatement	-10.4392
▁"</	-10.4394
▁liferay	-10.4396
▁reading	-10.4403
info	-10.4426
Runner	-10.4426
Prop	-10.4427
▁getLocation	-10.4433
▁media	-10.4435
▁getNode	-10.4439
▁filtered	-10.4447
▁collector	-10.445
▁MIN	-10.4451
Use	-10.4457
▁free	-10.4464
▁processor	-10.4464
▁cal	-10.4469
read	-10.447
Marker	-10.4474
Expected	-10.4475
▁JsonToken	-10.4479
▁center	-10.4488
Scale	-10.4488
▁archive	-10.4491
NS	-10.4501
Transition	-10.4501
▁catalog	-10.4502
ce	-10.4504
▁Enum	-10.4506
▁setting	-10.4511
▁labels	-10.4513
binding	-10.4517
▁ByteBuf	-10.4518
▁SDK	-10.4519
config	-10.4523
▁core	-10.4528
Bits	-10.4528
Tokens	-10.4531
Menu	-10.4541
▁their	-10.4549
▁ext	-10.4557
▁App	-10.4557
▁Label	-10.4563
▁HTML	-10.4565
Exists	-10.457
▁nothing	-10.457
▁Duration	-10.4572
▁helper	-10.4576
▁corresponding	-10.4585
▁currently	-10.4596
▁issue	-10.4615
▁numberOf	-10.4616
▁encoder	-10.4622
▁regex	-10.4632
▁Notification	-10.4635
▁LinkedHashMap	-10.464
▁Files	-10.4642
▁getDescription	-10.4646
▁getApplication	-10.4659
▁Writer	-10.4661
▁take	-10.4665
Success	-10.4669
Global	-10.467
ById	-10.4676
▁require	-10.4682
Stop	-10.4686
▁records	-10.4702
DataType	-10.4707
▁canvas	-10.4708
▁con	-10.4711
▁Y	-10.4714
▁way	-10.473
▁Code	-10.4732
▁VERSION	-10.4733
▁written	-10.4754
▁getY	-10.4756
▁checkState	-10.4775
Return	-10.4784
▁replacement	-10.4788
▁constant	-10.479
▁android	-10.4805
▁OPERATION	-10.4806
Tuple	-10.4817
▁sessionId	-10.4834
▁\	-10.4834
Cms	-10.4847
Calendar	-10.4852
▁locator	-10.4855
Criteria	-10.4855
▁"]	-10.4857
▁direction	-10.4863
▁structure	-10.4868
Transform	-10.487
▁poll	-10.487
▁members	-10.4872
▁getLast	-10.4873
▁Reader	-10.4877
Multi	-10.4882
NLS	-10.4882
▁safe	-10.4883
▁ALL	-10.489
▁sc	-10.4893
Relation	-10.4904
Separator	-10.4905
Threshold	-10.4905
▁outputStream	-10.4905
de	-10.4911
▁isDirectory	-10.4922
▁dump	-10.4922
▁classpath	-10.4925
*	-10.4926
▁Local	-10.4927
ON	-10.4929
Checker	-10.4931
Float	-10.4934
ref	-10.4937
▁yet	-10.4938
Allowed	-10.4939
NO	-10.4947
node	-10.4951
Delay	-10.4952
▁Header	-10.4953
▁filters	-10.4955
▁findViewById	-10.4976
url	-10.4976
Accessor	-10.4979
REQUEST	-10.4984
PROPERTY	-10.4985
Uuid	-10.4992
VERSION	-10.4993
▁orig	-10.4993
▁resourceName	-10.4997
▁Protocol	-10.4997
Tab	-10.5003
▁known	-10.5004
▁sign	-10.5008
Creator	-10.501
▁seq	-10.5011
▁matched	-10.5014
Extensions	-10.5015
Renderer	-10.5019
▁packet	-10.5019
us	-10.5019
▁were	-10.5023
Ex	-10.503
▁Not	-10.5031
Transport	-10.5046
Errors	-10.5055
509	-10.5056
Sample	-10.5056
▁permissions	-10.5062
▁Int	-10.5067
▁monitor	-10.5069
▁getColumn	-10.5073
;"	-10.5073
sTo	-10.5076
▁avoid	-10.5077
▁serialized	-10.5077
▁dataType	-10.5093
▁Module	-10.5096
▁["	-10.5107
▁getLogger	-10.5111
▁clean	-10.5116
INT	-10.5118
Clause	-10.5125
all	-10.5129
▁Basic	-10.5133
Algorithm	-10.5134
len	-10.514
Records	-10.5145
▁Xml	-10.5149
▁occurred	-10.5151
em	-10.5156
Head	-10.5158
Decl	-10.5159
▁"\\	-10.5161
Archive	-10.5161
▁Commerce	-10.5162
Features	-10.5164
▁net	-10.5176
▁ssl	-10.5177
▁ioe	-10.5184
▁ROOT	-10.519
▁entities	-10.5196
FieldAccessor	-10.5206
▁setType	-10.5214
▁Location	-10.5214
▁JsonNode	-10.522
IOException	-10.5223
▁"[	-10.5225
▁fromString	-10.523
REGION	-10.5236
Attachment	-10.5237
▁Handler	-10.5251
▁doesn	-10.5254
Filters	-10.5264
Raw	-10.5275
Connector	-10.5278
not	-10.5287
▁el	-10.5301
▁contracts	-10.5307
▁Sequence	-10.5315
/{	-10.5325
▁Generic	-10.534
Producer	-10.5342
Tracker	-10.5345
▁CmsResource	-10.5345
▁peer	-10.535
Stage	-10.5353
▁localName	-10.5354
▁bottom	-10.5355
Structure	-10.5358
td	-10.5362
▁OAuth	-10.5364
▁")	-10.5366
Atom	-10.5372
▁Convert	-10.5376
le	-10.538
▁SAXException	-10.5383
▁track	-10.5385
▁filePath	-10.5388
ur	-10.54
Area	-10.5401
▁asset	-10.5402
Jar	-10.5402
▁widget	-10.5405
▁EClass	-10.5407
_3	-10.5413
▁cs	-10.5413
Cookie	-10.5415
Without	-10.5416
Association	-10.5427
▁sp	-10.5431
▁fn	-10.5433
▁Factory	-10.5437
▁writeObject	-10.5442
Generic	-10.5443
▁Binary	-10.5451
▁keep	-10.5455
▁32	-10.546
▁ii	-10.5464
▁marker	-10.5464
ee	-10.5466
at	-10.5469
Intent	-10.5471
().	-10.5474
Has	-10.5476
▁getProperties	-10.5478
▁Operator	-10.5478
Conversion	-10.5479
▁certificate	-10.5484
▁Queue	-10.5485
os	-10.549
▁readInt	-10.5499
▁trans	-10.55
▁flatMap	-10.55
TableName	-10.5501
▁destroy	-10.5501
▁scheme	-10.5517
▁publish	-10.5534
Delta	-10.5534
▁Validate	-10.5537
▁question	-10.554
▁Proxy	-10.5542
▁delimiter	-10.5544
▁Scheduler	-10.5546
▁sources	-10.555
▁look	-10.5554
▁minimum	-10.5557
nextPageLink	-10.5559
▁attempt	-10.5565
▁concat	-10.5566
▁Comparator	-10.5567
Entities	-10.5567
Dataset	-10.557
▁getModel	-10.5574
▁getChild	-10.5575
▁dim	-10.5592
▁orElse	-10.5593
▁taskId	-10.5594
▁negative	-10.5597
▁getter	-10.5601
Visible	-10.5604
▁"\""	-10.5605
▁branch	-10.561
DateTime	-10.5611
▁addChild	-10.5615
Drawable	-10.5617
LIST	-10.562
▁drop	-10.562
▁translate	-10.5628
ms	-10.5628
▁Constructor	-10.563
▁ca	-10.5633
ByName	-10.564
▁9	-10.5642
▁reg	-10.5646
▁populate	-10.5654
Worker	-10.5655
▁Mutable	-10.5656
▁screen	-10.5657
▁receiver	-10.5659
▁sink	-10.5663
resources	-10.5664
▁annotated	-10.5665
int	-10.5666
▁savedInstance	-10.567
▁APPLICATION	-10.5673
Observer	-10.5674
Work	-10.5677
▁NONE	-10.5679
▁via	-10.5694
Created	-10.5701
▁font	-10.5708
▁edit	-10.5714
Insert	-10.5722
dMessageV	-10.5726
\\	-10.5727
GET	-10.5733
▁TRUE	-10.5739
default	-10.5751
▁getAttributes	-10.5754
▁PrintWriter	-10.5756
▁reverse	-10.5756
Total	-10.5762
01	-10.5763
▁ByteString	-10.5769
DEFAULT	-10.578
▁Id	-10.5788
▁variant	-10.5795
Locator	-10.5798
▁IO	-10.5806
▁might	-10.5812
▁Checks	-10.5812
▁parsing	-10.5812
▁assign	-10.5838
Slot	-10.5841
▁grpc	-10.5843
▁compose	-10.5853
▁paint	-10.5853
UI	-10.5862
Factor	-10.5864
▁modify	-10.5867
▁fixed	-10.5877
▁revision	-10.5877
▁what	-10.5883
Added	-10.5888
IP	-10.5893
▁correct	-10.5895
ize	-10.5896
▁NoSuch	-10.59
▁indices	-10.5903
▁//$	-10.5907
▁getParameters	-10.5908
▁XMLStream	-10.5914
▁isNullOrEmpty	-10.5922
▁forward	-10.5929
▁means	-10.5933
▁getResult	-10.5938
Master	-10.5942
▁toUpperCase	-10.5943
▁Portal	-10.5945
▁startIndex	-10.5948
as	-10.5965
▁getStart	-10.5969
▁calls	-10.5976
▁rec	-10.5993
▁merged	-10.5994
▁validator	-10.5996
▁sender	-10.6002
Catalog	-10.6005
Rect	-10.6007
Components	-10.6008
=\"	-10.6008
▁rc	-10.6011
Weight	-10.6019
▁readObject	-10.602
▁"-	-10.6024
▁consume	-10.6025
▁doubleValue	-10.6027
▁slice	-10.6027
▁Single	-10.6028
▁Environment	-10.6029
▁inside	-10.6049
Members	-10.6049
Aware	-10.6051
Iterable	-10.6058
tr	-10.6058
▁Sql	-10.6061
▁Extension	-10.6061
▁Artifact	-10.6065
▁go	-10.6068
▁coordinate	-10.6072
#	-10.6077
▁transformer	-10.6079
MAX	-10.6081
Animation	-10.6081
▁attachment	-10.6083
base	-10.6084
ParameterTypes	-10.6085
▁STRING	-10.6092
Pre	-10.6097
▁Q	-10.6099
and	-10.6104
▁dependencies	-10.6112
val	-10.612
Seconds	-10.6127
▁getResponse	-10.6132
Chars	-10.6134
▁users	-10.6134
Bitmap	-10.6144
Sink	-10.6146
▁less	-10.6152
Bit	-10.6154
Ctx	-10.6154
el	-10.6169
▁formatted	-10.6169
▁copyOf	-10.6173
Grid	-10.6174
▁JSONArray	-10.6174
▁js	-10.6177
▁wrong	-10.6178
▁observable	-10.6182
▁once	-10.6183
OPERATION	-10.6189
Socket	-10.6197
▁subscribe	-10.6205
▁entityType	-10.6205
▁authorization	-10.621
▁coordinates	-10.6213
▁Term	-10.6217
▁obtain	-10.6223
▁resultSet	-10.6236
▁direct	-10.6254
▁getHeader	-10.6255
▁happen	-10.6257
▁indexes	-10.6258
▁radius	-10.6258
▁Parameterized	-10.6259
RequestMetrics	-10.6265
ent	-10.6268
▁something	-10.6283
▁getInputStream	-10.6283
Override	-10.6284
Lines	-10.6286
Lambda	-10.6288
TimeMillis	-10.6297
TargetException	-10.6301
net	-10.6303
Comparison	-10.6305
▁getTable	-10.6309
▁normalize	-10.6309
▁startTime	-10.6309
▁due	-10.631
▁MAP	-10.6321
▁Multi	-10.6322
▁retVal	-10.6334
ive	-10.6335
▁factor	-10.6336
▁too	-10.6351
return	-10.6351
println	-10.6355
▁scanner	-10.6357
Dependencies	-10.6365
te	-10.6371
▁allocate	-10.6375
SuccessResponse	-10.6389
▁disable	-10.6389
▁transition	-10.6389
▁deprecated	-10.6394
▁construct	-10.6395
Aggregation	-10.6395
▁writeString	-10.6396
▁clientId	-10.6396
▁FOLLOW	-10.64
▁ordinal	-10.6407
Native	-10.6412
▁Remote	-10.6414
▁maybe	-10.6416
▁getBoolean	-10.6425
▁On	-10.6426
▁Link	-10.6431
Login	-10.6435
UUID	-10.6435
▁When	-10.6435
▁mean	-10.6438
▁Supplier	-10.6445
▁getPort	-10.645
▁logging	-10.645
Packet	-10.6458
Year	-10.646
▁stat	-10.6461
ReturnType	-10.6464
▁provide	-10.6467
▁standard	-10.6467
Labels	-10.6473
▁Ifc	-10.6483
▁columnIndex	-10.6484
▁download	-10.6486
Email	-10.6495
▁oldValue	-10.6497
▁scheduler	-10.6506
▁interfaces	-10.6511
Distance	-10.6513
Retry	-10.6517
▁ordered	-10.652
▁restore	-10.6522
}	-10.6525
cache	-10.6533
Credential	-10.6537
TypeReference	-10.6539
▁declared	-10.6547
request	-10.6547
Constraints	-10.6555
▁included	-10.656
▁creating	-10.656
▁newArrayList	-10.656
▁img	-10.6564
et	-10.6569
▁connector	-10.6576
▁extensions	-10.6576
▁person	-10.6578
▁userName	-10.6593
▁tr	-10.6598
▁FINE	-10.6598
Site	-10.6612
▁endEvent	-10.6614
▁onCreate	-10.6621
Short	-10.6623
▁backup	-10.6624
▁receive	-10.6624
input	-10.6629
▁Comparable	-10.6631
▁readLine	-10.6632
field	-10.6635
▁these	-10.6646
▁apache	-10.6665
▁Argument	-10.6673
▁enum	-10.6676
▁emit	-10.6676
Bar	-10.6676
ant	-10.6682
EventListener	-10.6682
▁BufferedImage	-10.6685
ExecuteTime	-10.6685
▁MojoExecution	-10.6695
▁writeTo	-10.6696
Dispatcher	-10.6696
state	-10.6701
▁se	-10.6702
▁visible	-10.6704
▁Try	-10.6704
page	-10.6705
▁necessary	-10.6717
▁errorMessage	-10.6719
▁still	-10.6727
▁portal	-10.6728
Sum	-10.6729
▁decoder	-10.6729
▁Graph	-10.6734
▁Re	-10.6743
▁Metadata	-10.6746
str	-10.6758
▁Registry	-10.6758
Put	-10.6759
▁ADVANCED	-10.6761
▁SIGNING	-10.6775
▁getAwsRequest	-10.6789
▁Serializable	-10.6791
▁exclude	-10.6794
▁setAWS	-10.6819
▁Charset	-10.6821
AwsResponse	-10.6824
▁high	-10.6825
Mappings	-10.6826
IR	-10.6826
Day	-10.683
▁dot	-10.6831
Core	-10.6832
FilePath	-10.6853
▁supplier	-10.6853
ex	-10.6854
Equals	-10.6857
▁AfplibPackage	-10.686
▁getSize	-10.6861
▁redirect	-10.6871
Rest	-10.6875
▁63	-10.6876
getSigningRegion	-10.6877
▁Lists	-10.6884
▁native	-10.6888
▁Mono	-10.6891
Edit	-10.6893
▁special	-10.6893
Send	-10.6898
▁sw	-10.6904
Gen	-10.6905
Language	-10.6908
▁Parser	-10.6914
▁GL	-10.6917
Received	-10.6918
▁retval	-10.6919
▁getHost	-10.692
▁Find	-10.6931
▁Plugin	-10.6932
Vars	-10.6934
core	-10.6935
DAO	-10.6936
-1$	-10.6939
External	-10.694
▁alert	-10.6946
advancedConfig	-10.6952
application	-10.6954
Actions	-10.6961
▁managed	-10.6977
▁compiler	-10.6978
▁round	-10.6979
▁jsonObject	-10.698
FOUND	-10.6981
SET	-10.6984
Configs	-10.6984
▁pointer	-10.6987
HttpRequest	-10.699
Completed	-10.6991
▁registration	-10.6993
▁InetAddress	-10.6994
▁AWSRequest	-10.6994
..."	-10.6997
Getter	-10.6997
Reason	-10.7009
▁conversion	-10.7009
Direction	-10.7011
Upload	-10.7011
▁recover	-10.7014
check	-10.7028
query	-10.7033
▁cfg	-10.7043
▁low	-10.7046
Character	-10.705
Expressions	-10.7053
▁basic	-10.7056
ATTRIBUTE	-10.7059
▁cpDefinition	-10.7059
▁dimension	-10.7061
ity	-10.7061
▁Sample	-10.7062
buffer	-10.7063
▁pid	-10.7068
TABLE	-10.7084
▁Segment	-10.7095
Subject	-10.7097
▁padding	-10.71
Scanner	-10.7101
▁requires	-10.7104
Selected	-10.7104
Initializer	-10.7109
DTO	-10.7111
Transfer	-10.7119
▁chart	-10.712
▁Rest	-10.7121
▁pkg	-10.7132
ctx	-10.7146
Arr	-10.7152
▁JSONException	-10.7152
END	-10.7154
string	-10.7161
▁Member	-10.7165
▁scroll	-10.7168
IS	-10.7169
app	-10.7173
▁adapt	-10.7181
ws	-10.7184
▁seed	-10.7186
RequestContext	-10.7189
▁getRoot	-10.7191
▁FileNotFound	-10.7193
TOKEN	-10.7194
▁blocks	-10.7211
▁most	-10.7213
Updated	-10.7216
Based	-10.7219
▁dt	-10.7221
▁inject	-10.7222
▁setState	-10.7231
Branch	-10.7236
----------------	-10.7239
▁Timestamp	-10.7243
▁ts	-10.7243
write	-10.7245
Amount	-10.7248
9	-10.725
▁rhs	-10.725
▁isBlank	-10.7252
status	-10.7265
se	-10.7272
Indexes	-10.7282
im	-10.7285
▁asString	-10.7286
▁Order	-10.7289
▁Immutable	-10.729
▁Transformer	-10.7294
▁See	-10.7332
▁OK	-10.7335
▁addTo	-10.7338
FieldName	-10.7339
Started	-10.7341
▁getCode	-10.7349
▁roles	-10.7367
▁getTask	-10.7379
▁actions	-10.738
▁assignment	-10.7381
ch	-10.7384
▁lhs	-10.7387
▁greater	-10.7391
▁reduce	-10.7391
▁transfer	-10.7392
▁statistics	-10.7394
Sort	-10.7399
▁24	-10.7401
▁none	-10.7406
▁StringUtil	-10.7414
Schedule	-10.7416
▁Constant	-10.7416
$	-10.7425
ELEMENT	-10.7434
Library	-10.7438
▁setter	-10.7439
▁Store	-10.744
Changes	-10.7442
▁pw	-10.7447
▁pt	-10.7448
static	-10.745
▁HttpRequest	-10.7452
response	-10.7458
Roles	-10.7459
▁phase	-10.7462
Static	-10.7469
▁ApiResponse	-10.7473
Closed	-10.7474
=%	-10.7476
▁side	-10.7477
Scheme	-10.7478
▁dispatch	-10.7482
▁"-"	-10.7483
Filename	-10.7487
netSocketAddress	-10.7488
Font	-10.7489
message	-10.7492
▁Enumeration	-10.7494
▁expand	-10.7497
MAP	-10.7498
Relationship	-10.7499
▁getS	-10.7509
▁finished	-10.7509
▁Pointer	-10.7511
Old	-10.7513
Display	-10.7519
Radius	-10.7521
model	-10.7525
source	-10.7533
LINE	-10.7538
▁getToken	-10.7544
▁getClient	-10.7546
▁dto	-10.7547
▁fix	-10.7552
Down	-10.7564
▁outer	-10.7566
▁shift	-10.7567
ChangeListener	-10.7571
Bound	-10.7574
ve	-10.7596
scan	-10.7599
dingException	-10.76
▁\""	-10.7605
▁desired	-10.7611
date	-10.7613
▁UnsupportedEnco	-10.7614
▁Otherwise	-10.7623
am	-10.763
▁unexpected	-10.7636
Setter	-10.7636
dir	-10.7639
Completion	-10.7641
States	-10.7641
ized	-10.7642
Parse	-10.7647
▁FacesContext	-10.766
▁hex	-10.7663
▁binder	-10.7665
▁manifest	-10.7666
rawtypes	-10.7669
▁PROPERTY	-10.7687
▁Target	-10.7688
▁isLoggable	-10.7691
MESSAGE	-10.7693
▁loc	-10.7697
22	-10.7697
▁Symbol	-10.7697
▁repo	-10.7705
ment	-10.7706
Specific	-10.7711
▁ImmutableMap	-10.7712
▁instantiate	-10.7712
Stub	-10.7715
▁solution	-10.7716
▁unknown	-10.7719
Addr	-10.7725
Screen	-10.7727
▁words	-10.7731
Refresh	-10.7733
up	-10.7734
</	-10.7738
Unexpected	-10.7741
▁attach	-10.7742
INSTANCE	-10.7743
Creation	-10.7745
Common	-10.7747
▁All	-10.7753
IndexOutOfBounds	-10.7754
▁relationship	-10.7757
▁virtual	-10.7759
Home	-10.7763
Addresses	-10.7767
▁threshold	-10.7769
▁setStatus	-10.7771
Merge	-10.778
▁WS	-10.7785
Matches	-10.7786
▁workspace	-10.779
▁producer	-10.7793
▁Common	-10.7794
▁removeAll	-10.7796
method	-10.7796
▁longValue	-10.7802
▁PARAM	-10.7803
properties	-10.7813
Ip	-10.7813
▁threads	-10.7815
main	-10.7818
'"	-10.7819
Render	-10.7825
▁metaData	-10.7829
Using	-10.7831
Binder	-10.7833
▁Cell	-10.7836
Ext	-10.784
▁MILLISECONDS	-10.7843
▁rollback	-10.7845
Inputs	-10.7846
do	-10.7847
Preference	-10.7847
▁Random	-10.7848
content	-10.7852
▁Endpoint	-10.7857
▁Condition	-10.7858
▁help	-10.7858
view	-10.7861
▁signal	-10.7869
▁ac	-10.7886
ES	-10.7888
▁Deployment	-10.7889
Indicator	-10.7891
▁detail	-10.7894
▁DataSource	-10.7911
▁rate	-10.7913
▁Dependency	-10.7913
Bind	-10.7914
▁20	-10.7914
Facet	-10.7914
START	-10.7919
▁jobId	-10.7925
),	-10.7927
▁area	-10.7932
▁uses	-10.7932
Gateway	-10.7933
COUNT	-10.7934
▁times	-10.7938
est	-10.7949
ro	-10.795
box	-10.7957
Media	-10.7958
▁positive	-10.7961
▁Standard	-10.7963
BY	-10.7963
▁hostname	-10.7967
Handlers	-10.7973
builder	-10.7974
Begin	-10.7975
Unmarshaller	-10.7976
▁impl	-10.7988
▁under	-10.7989
Geometry	-10.7992
▁specify	-10.7993
▁composite	-10.7998
Infos	-10.8005
Candidate	-10.8008
▁Form	-10.8012
last	-10.8015
OS	-10.8016
▁Run	-10.802
CACHE	-10.8028
context	-10.8028
CONTEXT	-10.803
▁partial	-10.8033
Receiver	-10.8036
▁behavior	-10.8046
Segments	-10.8052
link	-10.8057
▁library	-10.8063
Analysis	-10.8081
▁reply	-10.8083
GROUP	-10.8087
▁SDVariable	-10.8096
Elem	-10.8102
point	-10.8103
www	-10.8103
▁getResources	-10.8108
▁place	-10.8109
port	-10.8112
▁vm	-10.812
▁Scope	-10.8121
▁12	-10.8123
▁Async	-10.813
▁organization	-10.8134
INDEX	-10.8139
AttributeValue	-10.8146
FileOutputStream	-10.8147
me	-10.8154
bar	-10.816
▁Do	-10.8163
OK	-10.8164
Struct	-10.8187
ate	-10.8188
▁FileSystem	-10.8193
▁define	-10.8198
Axis	-10.8204
▁Network	-10.8214
▁angle	-10.8215
FORMAT	-10.8219
▁serverName	-10.8224
ll	-10.8224
RE	-10.8234
▁NoSuchMethod	-10.8234
▁New	-10.8239
▁-1	-10.8239
Distribution	-10.824
▁dist	-10.8243
▁bs	-10.8244
▁Pipeline	-10.8246
21	-10.8247
MODE	-10.825
rs	-10.8253
▁Partition	-10.8259
sql	-10.8263
current	-10.8265
▁absolute	-10.8267
Removed	-10.8269
▁how	-10.828
▁fallback	-10.8283
the	-10.8288
()"	-10.8288
Loop	-10.8289
▁getUrl	-10.8289
Descr	-10.8294
PATTERN	-10.8296
02	-10.8296
▁isNotBlank	-10.8297
▁addListener	-10.8301
Hint	-10.8305
*/	-10.8306
ers	-10.8306
Auto	-10.8307
▁summary	-10.8309
Primitive	-10.8314
sPer	-10.8315
Pane	-10.8317
ResultSet	-10.8318
▁Managed	-10.8321
Indices	-10.8328
▁runnable	-10.8331
▁ServiceCallback	-10.8335
▁fieldType	-10.8335
▁addAttribute	-10.834
▁even	-10.834
QualifiedName	-10.834
Clazz	-10.8343
▁getProject	-10.835
▁setEnabled	-10.8357
▁disabled	-10.8358
▁Options	-10.8361
Phase	-10.8368
▁aggregate	-10.8372
▁currency	-10.8374
Connections	-10.8375
▁know	-10.8377
▁isNotEmpty	-10.8378
level	-10.838
▁waitFor	-10.8383
▁duplicate	-10.8386
Any	-10.8392
for	-10.8395
Backup	-10.8397
▁Certificate	-10.8399
▁buff	-10.8401
▁Z	-10.8404
▁dbSession	-10.8413
▁promise	-10.8417
▁ofNullable	-10.842
ac	-10.8427
Validate	-10.8429
Keyword	-10.8436
▁getOutput	-10.8442
▁drawable	-10.8442
>\	-10.8442
><	-10.8444
Behavior	-10.8446
▁related	-10.8453
▁singletonList	-10.8456
▁references	-10.8466
▁IS	-10.847
▁whose	-10.8471
Evaluator	-10.8475
▁contained	-10.8476
Unsupported	-10.8477
▁audit	-10.8478
▁SC	-10.8481
Dimension	-10.8481
PARAM	-10.8489
▁against	-10.8492
▁httpClient	-10.8493
▁200	-10.8498
▁normal	-10.8503
▁cf	-10.8512
Wait	-10.8514
▁EObject	-10.8516
▁Stop	-10.8519
▁Callback	-10.8527
▁every	-10.8533
▁Open	-10.8533
▁bootstrap	-10.8534
Follow	-10.8535
ri	-10.8535
▁getItem	-10.8543
▁singleton	-10.8545
Export	-10.855
▁credential	-10.855
▁workflow	-10.8556
▁updateresource	-10.8557
STATE	-10.8559
▁ClassNode	-10.856
▁interceptor	-10.8568
▁setId	-10.8575
AS	-10.858
▁extended	-10.8582
▁waiting	-10.8582
▁directly	-10.8596
Stmt	-10.8597
▁getClassName	-10.8601
cp	-10.8601
Cmd	-10.8605
▁href	-10.8606
Direct	-10.8607
▁writeAttribute	-10.8608
▁Composite	-10.8623
▁nitro	-10.8629
Main	-10.8633
NODE	-10.8635
Bindings	-10.864
▁DataType	-10.8643
Pending	-10.8648
▁quote	-10.865
▁Route	-10.8652
▁cert	-10.8657
▁EJB	-10.8658
▁supports	-10.8664
Abstract	-10.8665
Back	-10.8666
Implementation	-10.8671
Padding	-10.8672
output	-10.8676
ServiceResponse	-10.8679
▁"}"	-10.8688
▁gl	-10.8689
▁backtracking	-10.8692
▁edges	-10.8696
▁getOrCreate	-10.8709
Off	-10.871
Center	-10.8712
▁note	-10.8713
la	-10.8713
▁getAddress	-10.8716
▁InternalXtext	-10.8718
▁dep	-10.8718
▁got	-10.8719
target	-10.8721
▁mod	-10.8722
▁Dynamic	-10.8726
▁commands	-10.873
▁casFeat	-10.8731
▁proc	-10.8731
▁CloudException	-10.8733
▁topology	-10.8733
References	-10.8734
▁getCache	-10.8735
▁Bitmap	-10.8736
PER	-10.8738
▁secret	-10.874
Mgr	-10.8742
Running	-10.8743
GroupName	-10.8744
▁setString	-10.8745
Ops	-10.8746
Stat	-10.8749
▁completion	-10.8758
▁actor	-10.8761
▁getEnd	-10.8764
▁Media	-10.8769
qPath	-10.8771
Measure	-10.8772
▁Only	-10.8796
▁May	-10.8797
Blocks	-10.8805
▁specification	-10.8807
Priority	-10.8809
▁Global	-10.8813
▁getCurrentToken	-10.8813
▁embedded	-10.8815
test	-10.8816
▁datasource	-10.8819
SERVER	-10.8826
▁cleanup	-10.8826
▁Edge	-10.8836
▁Script	-10.8837
Origin	-10.8841
▁Buffer	-10.8842
▁getBundle	-10.8843
▁\"	-10.8848
offset	-10.8849
▁seen	-10.885
Cert	-10.8854
▁0.5	-10.8857
Cause	-10.886
▁pretty	-10.886
ol	-10.8866
USER	-10.8868
Users	-10.887
update	-10.8873
▁WebSocket	-10.8875
▁Compute	-10.8878
▁saved	-10.8886
▁plus	-10.8888
co	-10.889
▁[%	-10.8891
Deleted	-10.8893
▁normalized	-10.8903
Assert	-10.8909
▁border	-10.891
▁ConditionOption	-10.8912
err	-10.8918
▁USER	-10.8919
ui	-10.8922
WithAnnotations	-10.8925
▁httpRequest	-10.8925
Tool	-10.8925
SEPARATOR	-10.8926
▁many	-10.893
▁blob	-10.8931
▁Example	-10.8931
Other	-10.8933
▁bar	-10.8941
▁annotationType	-10.8942
80	-10.8942
Invoke	-10.8945
▁processInstance	-10.8949
▁AmazonWeb	-10.8949
ting	-10.8952
odedOutputStream	-10.8955
Secret	-10.8957
▁targetClass	-10.8957
Download	-10.8959
▁decoded	-10.8961
▁Access	-10.8966
▁disk	-10.8972
▁Promise	-10.8974
Modifier	-10.898
▁getProvider	-10.8988
▁me	-10.8997
▁getMetadata	-10.8999
▁observer	-10.9005
▁patch	-10.9008
JS	-10.901
▁Device	-10.9012
▁updates	-10.9013
▁cipher	-10.9015
▁getC	-10.9018
object	-10.9019
tc	-10.9021
▁accessor	-10.903
Temp	-10.9033
}/	-10.9033
Tile	-10.9034
▁UIComponent	-10.9038
1"	-10.9038
▁INFO	-10.9039
event	-10.9039
select	-10.9039
▁itself	-10.9042
▁getSchema	-10.9044
▁streamId	-10.905
▁DELETE	-10.9054
Links	-10.9055
▁connected	-10.9056
▁platform	-10.9061
▁background	-10.9066
jar	-10.9071
▁pe	-10.9072
▁Description	-10.9078
array	-10.9084
Disk	-10.9086
sAsync	-10.9086
▁1024	-10.9097
Debug	-10.9104
▁60	-10.9106
▁getExpression	-10.9109
▁getDatabase	-10.9112
DATE	-10.9113
▁getBean	-10.9118
Save	-10.9119
action	-10.9124
MS	-10.9127
▁DEBUG	-10.913
Tables	-10.9135
LocalService	-10.9142
▁getList	-10.9145
Logging	-10.9147
▁RemoteException	-10.9153
ProcessInstance	-10.9154
▁IType	-10.9155
InstanceId	-10.9155
▁declaration	-10.9156
▁union	-10.9158
ABLE	-10.9165
▁func	-10.9166
▁accessToken	-10.9168
▁Account	-10.918
▁FALSE	-10.9181
Availability	-10.9184
Src	-10.9188
▁"(	-10.9189
▁dimensions	-10.9199
▁Report	-10.9202
cloud	-10.9203
Execute	-10.9209
Connect	-10.9214
▁isEnabled	-10.9216
Sender	-10.922
▁Change	-10.9222
▁vars	-10.9225
▁inputs	-10.9226
▁setDefault	-10.9229
It	-10.9235
());	-10.9235
▁toJson	-10.9235
Super	-10.9239
▁appropriate	-10.9242
▁interrupt	-10.9243
doc	-10.9243
▁did	-10.9246
Zero	-10.9247
from	-10.9253
ColumnName	-10.9256
▁issues	-10.9259
▁groupName	-10.9261
▁Format	-10.9262
▁objectName	-10.9267
▁applied	-10.9268
▁jjt	-10.9275
▁qualifier	-10.9277
Unique	-10.9277
ApiException	-10.9277
▁inc	-10.9277
▁Package	-10.928
Instruction	-10.928
▁OpenCms	-10.9285
ating	-10.9286
▁fromIndex	-10.9287
Operand	-10.9287
Lifecycle	-10.9288
Runnable	-10.929
▁internalGet	-10.9292
▁Constraint	-10.9296
▁price	-10.9296
▁ce	-10.9297
Cost	-10.9299
Reply	-10.9299
▁Lock	-10.9307
▁Coordinate	-10.9308
▁ACTION	-10.9313
▁checkpoint	-10.9315
▁addProperty	-10.9315
▁dynamic	-10.9322
Topology	-10.9323
CONTENT	-10.9329
▁offer	-10.9333
▁Rectangle	-10.9337
▁Copy	-10.9338
Existing	-10.9339
ParseException	-10.9349
EL	-10.9351
▁ss	-10.9352
▁await	-10.9354
▁closure	-10.9357
▁latest	-10.936
age	-10.9361
▁payment	-10.9371
cas	-10.9377
▁again	-10.9377
Scroll	-10.9377
ue	-10.9378
▁WARNING	-10.9386
▁later	-10.9394
▁Subscription	-10.9401
▁dbc	-10.9401
Sets	-10.9406
Many	-10.9406
▁createPr	-10.9416
apache	-10.9419
13	-10.9426
▁baos	-10.9437
▁ProtocolRequest	-10.9438
▁unmarshal	-10.9438
▁pairs	-10.944
▁Instantiation	-10.9448
▁eventType	-10.9449
▁READ	-10.9449
▁getQuery	-10.9456
▁Style	-10.9457
▁marshal	-10.9459
Used	-10.9464
▁stub	-10.9464
▁includes	-10.9465
Asset	-10.9469
Example	-10.9471
ness	-10.9474
Chart	-10.9478
Threads	-10.9481
PayloadJson	-10.9492
▁fine	-10.9494
HEADER	-10.9501
▁JsonOperation	-10.9512
withHasStreaming	-10.9516
ByteArray	-10.9517
▁DataSet	-10.9517
Ms	-10.9518
channel	-10.9526
Paint	-10.953
▁isNull	-10.9533
▁CPDefinition	-10.9538
TIMEOUT	-10.954
▁iteration	-10.9541
▁getServer	-10.9547
SimpleDateFormat	-10.9548
Warning	-10.9549
▁injector	-10.956
▁modules	-10.9561
▁projection	-10.9562
Click	-10.9564
▁lastModified	-10.9564
▁program	-10.9566
Persistence	-10.9566
POS	-10.9568
filter	-10.9569
▁tables	-10.9573
▁executed	-10.9575
▁subscriber	-10.9576
▁stackSize	-10.9576
br	-10.9576
Price	-10.9587
▁absent	-10.9591
▁getModifiers	-10.96
OFFSET	-10.9614
▁nextElement	-10.962
▁Vertex	-10.9621
Slice	-10.9624
Env	-10.9626
Matching	-10.9626
Fetch	-10.963
▁StringWriter	-10.9633
ization	-10.9634
▁calc	-10.9639
Charset	-10.9639
tag	-10.9642
▁Permission	-10.9644
▁rect	-10.9648
false	-10.9649
▁Span	-10.9662
▁Role	-10.9665
▁Buffered	-10.9669
▁"$	-10.9671
▁transformation	-10.9671
Resolution	-10.9673
▁getLocal	-10.9673
▁th	-10.9675
▁Timer	-10.968
Into	-10.968
▁analysis	-10.968
▁animation	-10.9681
Strings	-10.9684
▁sym	-10.9697
▁bindings	-10.9705
ALL	-10.9705
▁IOUtils	-10.971
format	-10.9713
MethodName	-10.9717
▁orderBy	-10.9721
▁facet	-10.9722
var	-10.9725
▁findBy	-10.9727
▁ImmutableSet	-10.9728
▁parseLong	-10.9732
▁pixel	-10.9734
Supported	-10.9734
INFO	-10.9734
▁sentence	-10.9735
▁pageSize	-10.9736
24	-10.9736
Angle	-10.974
HttpClient	-10.974
Jobs	-10.9754
session	-10.9755
▁ad	-10.9759
StartElement	-10.976
▁according	-10.9762
▁Un	-10.977
▁To	-10.9774
▁"="	-10.9774
lib	-10.9774
▁resulting	-10.9775
▁getLabel	-10.9776
getCanonicalName	-10.9778
Opt	-10.9793
store	-10.9793
▁STATUS	-10.9794
▁Provider	-10.9798
▁JS	-10.9798
host	-10.98
▁FileUtils	-10.98
▁bond	-10.9802
");	-10.9807
Forward	-10.9808
▁invoked	-10.9809
▁propName	-10.9809
▁geo	-10.9812
▁days	-10.9814
▁TABLE	-10.9814
▁SSL	-10.9815
▁Named	-10.9826
▁proto	-10.9832
Transformation	-10.9833
▁Url	-10.9833
▁Frame	-10.9833
▁unregister	-10.9835
▁Serialization	-10.9843
tree	-10.9851
per	-10.9857
Regex	-10.9859
▁browser	-10.9868
▁Grid	-10.9868
COLUMN	-10.9872
▁persist	-10.9876
Accept	-10.9885
Scheduler	-10.9886
▁successfully	-10.9887
▁getPackage	-10.9889
Versions	-10.9892
▁HttpMethod	-10.9897
▁writing	-10.9899
▁Flow	-10.9903
Margin	-10.9906
▁DOUBLE	-10.9909
▁servletContext	-10.991
):	-10.9914
▁modifiers	-10.9914
▁AND	-10.9915
▁Sub	-10.9915
▁Send	-10.9918
▁getDocument	-10.9929
Visibility	-10.9933
▁bus	-10.9934
ibm	-10.9935
▁Stack	-10.9936
types	-10.9936
▁OBJECT	-10.994
▁Html	-10.994
READ	-10.9943
▁targetType	-10.9943
Volume	-10.9948
▁conditions	-10.9963
▁getLocalName	-10.9968
sub	-10.9974
▁Meta	-10.9993
DIR	-11.0005
Modified	-11.0005
SSL	-11.001
▁Custom	-11.0012
▁Host	-11.0015
▁lat	-11.0022
Deserializer	-11.0024
▁byteBuffer	-11.0026
▁getOffset	-11.0028
ary	-11.0031
Estimate	-11.0032
policy	-11.0034
▁isArray	-11.0036
TEXT	-11.0039
▁SI	-11.0041
Representation	-11.0042
▁Socket	-11.0051
▁INT	-11.0052
function	-11.0052
▁"_"	-11.006
Blob	-11.0062
Include	-11.0064
def	-11.0067
Evaluation	-11.0069
▁getDate	-11.0074
let	-11.0076
▁Analysis	-11.0094
▁TypeElement	-11.0096
▁loading	-11.0098
▁30	-11.01
Dynamic	-11.0102
▁CONTENT	-11.0103
▁statusCode	-11.0104
▁URISyntax	-11.0106
▁getReturnType	-11.0115
▁Auth	-11.0119
▁Stage	-11.0123
▁Converts	-11.0124
use	-11.0125
▁Atlas	-11.0128
▁printf	-11.0128
▁getGroup	-11.014
▁grammarAccess	-11.0145
▁getBody	-11.0145
▁pi	-11.0148
Envelope	-11.0149
Track	-11.015
by	-11.015
▁mappings	-11.0153
▁HttpClient	-11.0155
Push	-11.0156
Terms	-11.0158
ContentType	-11.0159
▁expressions	-11.0162
▁STATE	-11.0167
BeanDefinition	-11.0167
▁Counter	-11.0169
▁ui	-11.0173
▁co	-11.018
▁Register	-11.0184
Loaded	-11.0185
next	-11.0188
▁those	-11.0193
▁sheet	-11.0195
Managed	-11.0198
▁console	-11.0201
item	-11.0201
▁adjust	-11.0205
Finished	-11.0209
▁TEXT	-11.021
▁candidates	-11.0214
▁Load	-11.0215
▁ais	-11.0219
▁LONG	-11.0222
▁td	-11.0225
Organization	-11.0225
Loading	-11.0227
▁Profile	-11.0227
▁responses	-11.0231
Replication	-11.0231
Side	-11.0233
▁setHeader	-11.0233
▁terms	-11.0235
▁Any	-11.0235
▁Binding	-11.0239
Zone	-11.0243
gen	-11.0245
Move	-11.0252
▁unwrap	-11.0258
▁getInput	-11.0261
▁bad	-11.0264
Payment	-11.0266
▁versions	-11.0272
▁Management	-11.0273
https	-11.0276
▁millis	-11.0278
ResourceAsStream	-11.028
▁addElement	-11.0284
▁creation	-11.0286
▁Param	-11.0289
▁acc	-11.0292
▁scheduled	-11.0296
Show	-11.0298
▁getView	-11.03
▁loadClass	-11.0301
▁replaced	-11.0301
ModelImpl	-11.0307
▁FROM	-11.0307
span	-11.0308
▁evt	-11.0309
▁DATA	-11.0311
image	-11.0313
▁invalidate	-11.0315
='	-11.0315
Repo	-11.0321
▁Namespace	-11.0323
▁EPackage	-11.0325
Alpha	-11.0327
▁cm	-11.0329
▁getNum	-11.0333
▁constraints	-11.0336
▁interrupted	-11.0336
▁Graphics	-11.0336
▁OP	-11.0342
SERVICE	-11.0342
▁MalformedURL	-11.0343
▁Converter	-11.0343
Contents	-11.035
Cancel	-11.0358
Checkpoint	-11.036
▁bug	-11.036
less	-11.0365
▁writeByte	-11.0366
▁requests	-11.0369
▁temporary	-11.0371
▁oid	-11.0374
▁valueType	-11.0376
▁seek	-11.0377
Background	-11.038
=\""	-11.0386
▁shard	-11.0389
▁setDescription	-11.039
▁connections	-11.0391
Composite	-11.0396
▁Dimension	-11.0403
▁LocalDate	-11.0405
ie	-11.0405
▁acquire	-11.0406
Hook	-11.0407
30	-11.0418
▁actually	-11.0423
bit	-11.0426
UN	-11.0426
label	-11.043
GroupId	-11.0431
ad	-11.0431
▁Policy	-11.0434
▁queries	-11.0435
▁iterate	-11.0437
init	-11.0437
Over	-11.0443
▁Make	-11.0446
▁nodeList	-11.045
▁getTableName	-11.045
Publisher	-11.045
▁nanoTime	-11.045
Issue	-11.0451
▁setAccessible	-11.0453
FS	-11.0453
▁mimeType	-11.0455
▁exc	-11.046
▁hasMoreElements	-11.0465
▁Serializer	-11.0465
sp	-11.0465
isTraceEnabled	-11.0465
admin	-11.047
▁detect	-11.0481
▁milliseconds	-11.0481
▁reportError	-11.0482
delete	-11.0483
▁well	-11.0492
ns	-11.0494
▁getRaw	-11.0496
▁ctxt	-11.0503
STATUS	-11.0517
Mark	-11.0517
▁etc	-11.0518
▁above	-11.0524
▁callable	-11.0531
▁getTransaction	-11.0538
▁statements	-11.0543
▁appId	-11.0544
▁dao	-11.0548
▁gc	-11.0557
LOG	-11.056
▁runner	-11.0561
Shared	-11.0564
▁urls	-11.0581
Fault	-11.0582
Writable	-11.0584
▁cx	-11.0585
Promise	-11.0589
▁Auto	-11.0589
▁own	-11.0596
mo	-11.0596
OrNull	-11.0597
Edges	-11.0598
▁Uri	-11.0599
▁assume	-11.06
ta	-11.0603
Solution	-11.0607
MBean	-11.0609
▁rpc	-11.0611
▁ul	-11.0611
▁getIdentifier	-11.0613
▁syntax	-11.0613
▁SECONDS	-11.0621
▁keyword	-11.0627
▁elementName	-11.0628
Register	-11.0632
Dot	-11.0633
MethodDescriptor	-11.0634
▁Step	-11.0638
AND	-11.0639
▁CSS	-11.064
▁Closeable	-11.0648
Contact	-11.0651
form	-11.0651
▁getPage	-11.0652
▁localVar	-11.0653
{	-11.0654
div	-11.0656
',	-11.0656
Free	-11.0657
Serialization	-11.066
▁rotation	-11.0661
256	-11.0663
▁Widget	-11.0664
▁clause	-11.0667
▁extractor	-11.0667
HTTP	-11.067
▁lv	-11.067
Delimiter	-11.067
▁klass	-11.067
▁Bytes	-11.0671
▁referenced	-11.0673
▁assigned	-11.0674
remove	-11.0675
Alignment	-11.0679
opencms	-11.0679
▁launch	-11.0682
▁getTag	-11.0688
▁nodeId	-11.0689
▁UN	-11.069
▁databaseName	-11.0692
ies	-11.0696
▁Attributes	-11.0696
▁rank	-11.0697
Encoded	-11.0703
Done	-11.0704
▁mock	-11.0705
▁compressed	-11.0707
▁Null	-11.0714
▁incoming	-11.0714
Redirect	-11.0717
▁Initialize	-11.072
IC	-11.072
▁IP	-11.0723
Skip	-11.0725
2"	-11.0726
▁dis	-11.0728
Cached	-11.0728
Words	-11.073
▁getSuperclass	-11.0741
Do	-11.0743
▁datastore	-11.0743
nd	-11.0745
▁checksum	-11.075
Basic	-11.0752
fsp	-11.0754
▁comparison	-11.0757
▁resolution	-11.0757
Tail	-11.0766
Requested	-11.077
▁First	-11.0772
Material	-11.0773
▁getTotal	-11.0776
▁getEPackage	-11.078
um	-11.0782
one	-11.0788
▁Cookie	-11.0794
Fixed	-11.0795
Border	-11.0797
▁MozuClient	-11.0797
▁nextInt	-11.0799
Workspace	-11.0802
Queries	-11.0802
▁getStatusCode	-11.0803
▁getLeft	-11.081
lv	-11.0818
▁cmp	-11.0818
▁equivalent	-11.0825
▁pin	-11.0832
▁jdbc	-11.0834
▁ObjectMapper	-11.0835
▁toIndex	-11.0835
▁serialization	-11.0836
▁parameterTypes	-11.0838
Functions	-11.0842
Dictionary	-11.0842
▁precision	-11.0844
NotNull	-11.0848
▁ready	-11.0851
ByteBuffer	-11.0853
▁series	-11.0854
▁getBase	-11.0855
▁[{}]	-11.0855
▁handling	-11.0857
▁getImage	-11.0857
Present	-11.0859
▁logic	-11.0862
Modules	-11.0863
▁readValue	-11.0873
Subscriber	-11.0881
Safe	-11.0888
▁accumulator	-11.0893
▁RE	-11.0895
▁repeat	-11.0898
Compiler	-11.0903
▁LinkedHashSet	-11.0907
title	-11.0912
▁en	-11.0913
description	-11.0914
▁mail	-11.0916
NoSuchAlgorithm	-11.092
▁swap	-11.0922
POST	-11.0925
▁measure	-11.0927
▁handled	-11.0928
▁machine	-11.0928
▁represents	-11.0932
▁AssertionError	-11.0932
back	-11.0932
ify	-11.0936
▁Azure	-11.0957
▁ViewGroup	-11.0957
Fail	-11.0961
MenuItem	-11.0963
▁procedure	-11.0965
▁mkdirs	-11.0968
METHOD	-11.097
Extra	-11.0971
ErrorMessage	-11.0976
Backend	-11.099
ter	-11.0993
fs	-11.0995
▁Line	-11.0998
WITH	-11.1006
Bottom	-11.1007
▁mem	-11.1007
▁ttl	-11.1014
Counts	-11.1016
body	-11.1017
▁restart	-11.1022
▁getMap	-11.1022
▁rev	-11.1029
result	-11.1031
▁facesContext	-11.1033
Indent	-11.1036
Configurations	-11.1038
▁watch	-11.1038
Month	-11.104
▁including	-11.1041
▁'{}'	-11.1042
Histogram	-11.105
Interfaces	-11.1051
order	-11.1061
▁cu	-11.1061
Descriptors	-11.1062
▁~	-11.1071
▁persistence	-11.108
▁Identifier	-11.108
Sent	-11.1083
▁ring	-11.1086
▁projectId	-11.1089
QueryBuilder	-11.109
Exchange	-11.1091
▁getUri	-11.1094
process	-11.1099
▁excluded	-11.1099
▁Determine	-11.1101
▁buffers	-11.1101
ACTION	-11.1104
Initial	-11.1126
call	-11.1127
Previous	-11.1127
number	-11.1131
▁feed	-11.1134
ATION	-11.1136
▁renderer	-11.1136
search	-11.1143
▁ELEMENT	-11.1149
▁companyId	-11.1158
Patterns	-11.1161
▁patterns	-11.1161
il	-11.1163
ance	-11.1164
Days	-11.1164
▁cacheKey	-11.1166
Injector	-11.1171
Bridge	-11.1174
▁dispose	-11.1175
Aggregate	-11.1175
sList	-11.118
▁deploy	-11.1181
▁cacheName	-11.1181
▁backend	-11.1182
▁cr	-11.1183
av	-11.1183
▁timeUnit	-11.1184
▁Bson	-11.1185
▁INVALID	-11.1185
▁"("	-11.119
▁pipe	-11.1192
AR	-11.1193
▁parameterName	-11.1194
Release	-11.1205
Capabilities	-11.1205
▁fromJson	-11.1208
▁ibm	-11.1209
▁SET	-11.1209
▁toCharArray	-11.1211
ap	-11.1218
open	-11.1219
iv	-11.1221
▁childNode	-11.1224
▁getP	-11.1226
Sources	-11.1226
▁getFirstChild	-11.1228
Sid	-11.1229
▁immutable	-11.1233
▁Removes	-11.1236
Appender	-11.1241
▁rv	-11.1241
15	-11.1244
▁hasText	-11.1246
▁getEClassifier	-11.1252
▁strip	-11.1255
▁bi	-11.1255
▁setVisible	-11.1255
▁Cloud	-11.1256
TreeNode	-11.1262
▁mc	-11.1263
Pass	-11.1264
▁translation	-11.1265
▁getSub	-11.1266
Detector	-11.127
▁nodeName	-11.1271
▁eNS	-11.1271
▁big	-11.1276
Packages	-11.1277
▁setData	-11.1281
▁mid	-11.1282
▁cd	-11.1286
▁setContext	-11.1287
▁Listener	-11.1292
▁management	-11.1295
▁country	-11.1297
▁author	-11.1298
▁rejected	-11.13
Hierarchy	-11.13
▁Char	-11.13
▁getLocale	-11.1306
Req	-11.1309
cc	-11.1313
▁keyspace	-11.1313
Mod	-11.1314
▁putInt	-11.1319
▁requestId	-11.132
▁getMin	-11.1324
▁units	-11.1325
om	-11.1332
FileSystem	-11.1333
▁ms	-11.1338
ator	-11.134
AT	-11.1341
▁CommandLine	-11.1343
▁pack	-11.1346
Workflow	-11.1346
Templates	-11.1352
ServiceName	-11.1354
Callable	-11.136
dd	-11.1366
Final	-11.1367
▁association	-11.1368
▁closing	-11.1368
Finish	-11.137
▁Redis	-11.1375
load	-11.1377
▁getCount	-11.1377
▁dataSet	-11.1378
▁anchor	-11.138
we	-11.1385
ds	-11.1385
▁compareAndSet	-11.1389
num	-11.1397
▁hour	-11.14
BYTE	-11.1402
@	-11.1406
row	-11.1407
▁fast	-11.1408
Program	-11.1414
▁adding	-11.142
ig	-11.142
DataSet	-11.1432
▁dispatcher	-11.1433
▁Mode	-11.1434
▁ResponseBody	-11.1434
▁HttpURL	-11.1436
▁recursive	-11.1438
▁REQUEST	-11.1446
CP	-11.1446
▁eq	-11.1447
Ignore	-11.1453
▁seg	-11.1455
Mail	-11.1458
runtime	-11.146
▁vertices	-11.1469
▁visited	-11.147
mm	-11.1477
HTML	-11.1479
▁beans	-11.148
▁listFiles	-11.1486
▁Box	-11.1492
▁Persistence	-11.1497
▁ranges	-11.15
CA	-11.1501
▁getAction	-11.1501
MM	-11.1505
▁ifPresent	-11.1506
▁HttpStatus	-11.1514
▁scenario	-11.1515
▁getChannel	-11.1519
parent	-11.1519
▁combined	-11.1522
RequestPr	-11.1522
▁ejb	-11.1524
▁"&	-11.1531
▁You	-11.1534
▁aggregation	-11.1534
▁decimal	-11.1542
Steps	-11.1543
Ready	-11.1545
Generated	-11.1555
▁TRACE	-11.1555
▁coll	-11.1556
▁clock	-11.156
Requests	-11.1563
Overlay	-11.1565
▁Workflow	-11.1572
▁getCommand	-11.1576
Throwable	-11.1577
▁sig	-11.1583
▁UNKNOWN	-11.1584
▁findAll	-11.159
▁toBlocking	-11.1591
▁cols	-11.1591
▁inline	-11.1595
Flush	-11.1598
▁getTitle	-11.1599
▁portlet	-11.1603
▁Signature	-11.1609
▁getJob	-11.1618
▁writeLong	-11.1622
▁dy	-11.1623
▁Trigger	-11.1625
▁addresses	-11.1635
Real	-11.1636
Decorator	-11.1639
▁PageException	-11.1642
▁cnt	-11.1642
LoadBalancer	-11.1644
▁currencyPair	-11.1644
▁pd	-11.1646
▁geom	-11.1647
▁expect	-11.165
▁Js	-11.165
ExecutorService	-11.1651
SELECT	-11.1652
Classifier	-11.1655
▁inclusive	-11.1662
Same	-11.1662
▁marshaller	-11.1663
▁2.0	-11.1664
bytes	-11.1664
▁Match	-11.1665
Manifest	-11.167
▁TreeMap	-11.1672
Touch	-11.1675
Ratio	-11.1675
▁ct	-11.1677
▁setColor	-11.1678
▁persistent	-11.1681
▁255	-11.1684
EntityManager	-11.1698
▁comments	-11.1698
Card	-11.17
▁Product	-11.1701
Dest	-11.1701
▁Native	-11.1703
▁partitions	-11.1703
Equal	-11.1703
▁getDouble	-11.1705
▁abstract	-11.1707
▁tenant	-11.1708
▁Mapping	-11.171
▁LIST	-11.1715
An	-11.1717
▁allows	-11.172
▁Platform	-11.172
▁getError	-11.1725
Contract	-11.1727
▁Empty	-11.1729
-1	-11.1738
▁customer	-11.1739
BYTES	-11.174
",	-11.174
▁Console	-11.1741
▁getPosition	-11.1742
Multimap	-11.1746
▁";"	-11.1747
▁^	-11.1749
NetworkInterface	-11.1749
Terminal	-11.1752
▁ServletContext	-11.1752
▁Is	-11.1752
Escape	-11.1752
▁setMax	-11.1754
▁enter	-11.1757
▁txn	-11.176
root	-11.176
Print	-11.1762
▁NodeList	-11.1762
▁Select	-11.1768
▁httpResponse	-11.1769
ite	-11.1772
▁64	-11.1774
▁numeric	-11.1777
▁ticket	-11.178
▁unset	-11.178
OUT	-11.1782
▁hit	-11.1783
Discovery	-11.1786
Qualifier	-11.1787
▁cat	-11.1787
▁isStatic	-11.1796
▁wildcard	-11.1805
▁getRecord	-11.1809
▁polygon	-11.1811
▁nb	-11.1814
▁EOF	-11.1815
Parsing	-11.1815
▁getRight	-11.1816
Broker	-11.1816
▁addHeader	-11.1818
▁qualified	-11.1818
▁finder	-11.182
Person	-11.1822
▁getProcess	-11.1823
▁FILE	-11.1829
▁Writable	-11.183
▁dx	-11.1834
Standard	-11.1834
▁Sort	-11.1834
▁getValues	-11.1835
▁Font	-11.1835
▁ast	-11.1835
▁{},	-11.1839
Aggregator	-11.1839
▁thrift	-11.1839
Units	-11.1841
Rel	-11.1841
password	-11.1843
▁returnType	-11.1843
▁publisher	-11.1848
StandardCharsets	-11.1849
▁attrName	-11.1854
▁setContent	-11.1856
▁Lazy	-11.1859
Violation	-11.1862
property	-11.1865
▁PathAddress	-11.1867
▁reporter	-11.1871
▁heap	-11.1872
▁15	-11.1875
exception	-11.1875
▁getActivity	-11.1876
▁dd	-11.1876
sInitialized	-11.1876
14	-11.188
▁SEVERE	-11.1881
▁objectMapper	-11.1883
LE	-11.1883
23	-11.1884
▁activate	-11.1884
Decimal	-11.1889
▁lifecycle	-11.1891
▁LayoutParams	-11.1892
Wrap	-11.1893
▁KeyStore	-11.1896
▁Window	-11.1899
project	-11.19
▁Import	-11.1907
));	-11.1908
▁*=	-11.1914
▁parallel	-11.1915
▁setParameter	-11.1917
▁QName	-11.1922
▁findFirst	-11.1923
Replace	-11.1923
▁escaped	-11.1926
▁realm	-11.1929
▁anno	-11.1931
▁"*"	-11.1934
▁HttpHeaders	-11.1935
▁stringBuilder	-11.195
Translation	-11.1954
only	-11.1955
▁Db	-11.1956
▁Opcodes	-11.1961
31	-11.1962
Bus	-11.1963
Public	-11.1964
▁feat	-11.1966
Primary	-11.1967
▁us	-11.1967
build	-11.1972
▁license	-11.1975
BE	-11.1977
▁lib	-11.1978
buf	-11.1978
▁IR	-11.1984
▁CODE	-11.1985
Checksum	-11.1986
▁clients	-11.1992
▁injection	-11.1994
Sign	-11.1996
width	-11.1997
Arn	-11.1998
▁variableName	-11.1998
nnotationPresent	-11.1999
▁getReference	-11.2004
Attempt	-11.2005
Conditions	-11.2008
▁Interval	-11.2009
▁FieldAccessor	-11.2009
▁xpath	-11.2012
▁bin	-11.2016
Setup	-11.2017
ls	-11.202
▁JDBC	-11.2024
▁getFrom	-11.2026
["	-11.2029
▁11	-11.2029
▁parameterIndex	-11.2032
Providers	-11.2036
PORT	-11.204
Alert	-11.204
▁Geo	-11.2044
Focus	-11.2046
▁sm	-11.2046
▁Can	-11.2046
▁reload	-11.2046
▁DATE	-11.2048
▁fc	-11.2051
▁queryParams	-11.2053
▁executeUpdate	-11.2053
TypeInfo	-11.2058
▁video	-11.206
Digest	-11.206
ra	-11.2064
Zip	-11.2068
▁checks	-11.2069
Math	-11.207
▁BY	-11.2072
EVENT	-11.2072
ability	-11.2079
ut	-11.2079
▁regular	-11.208
▁"?"	-11.2082
▁okhttp	-11.2082
Views	-11.2087
▁Settings	-11.2092
▁getKind	-11.2094
▁entityClass	-11.2096
▁Scan	-11.2097
▁gson	-11.2101
▁abort	-11.2105
▁mediaType	-11.2112
Requirement	-11.2115
▁uid	-11.2115
Utf	-11.2116
Classpath	-11.2116
Locations	-11.2119
▁Cursor	-11.2121
▁tagName	-11.2123
▁cost	-11.2123
▁batchSize	-11.2129
▁cos	-11.2134
▁TreeSet	-11.2134
▁div	-11.2135
▁combine	-11.2136
sIn	-11.2139
Starting	-11.2141
mi	-11.2143
▁Android	-11.2144
\""	-11.2148
Prev	-11.215
▁visibility	-11.2153
▁putIfAbsent	-11.2154
▁exact	-11.2154
OP	-11.2155
▁endIndex	-11.2156
▁tracker	-11.2157
▁ordering	-11.2158
▁closeQuietly	-11.2163
▁Fast	-11.2164
▁DOM	-11.2165
▁BeanDefinition	-11.2167
Find	-11.2167
Urls	-11.2169
rule	-11.2172
▁queryString	-11.2183
UP	-11.2189
Bootstrap	-11.2189
connection	-11.219
▁"@	-11.219
▁fully	-11.2191
Targets	-11.2191
▁primaryKey	-11.2191
▁tokenizer	-11.2194
▁framework	-11.2195
Hex	-11.2196
▁Handle	-11.22
▁getContainer	-11.2202
▁NoSuchElement	-11.2207
▁decision	-11.2207
Nanos	-11.2207
Sec	-11.2211
▁indexed	-11.2211
0.0	-11.2211
▁Primitive	-11.2213
Patch	-11.2214
Ordinal	-11.2219
▁Validator	-11.2221
LocalizedMessage	-11.2226
▁rename	-11.2226
▁numbers	-11.2229
▁Control	-11.2232
ma	-11.224
▁GUI	-11.2242
▁writeLock	-11.2251
▁broadcast	-11.2254
Positions	-11.2255
▁Authorization	-11.2258
▁histogram	-11.2258
web	-11.2259
Cast	-11.226
PropertyName	-11.226
Handling	-11.2264
src	-11.2271
DAY	-11.2272
▁getRow	-11.2275
HashMap	-11.2275
▁pm	-11.228
▁getRuntime	-11.2282
▁home	-11.2287
fieldAccessor	-11.2287
DS	-11.229
EDEFAULT	-11.2291
Ranges	-11.2293
▁contact	-11.2294
Browser	-11.2298
▁volume	-11.2301
TypeEnum	-11.2301
▁implemented	-11.2303
ence	-11.2303
values	-11.2304
▁indicates	-11.2306
▁IAtom	-11.2309
▁family	-11.231
▁JVM	-11.2311
▁previously	-11.2313
MD	-11.2317
Locked	-11.2318
▁lambda	-11.2318
Second	-11.232
▁addContent	-11.2322
▁CmsObject	-11.2324
▁dom	-11.2326
▁projects	-11.2332
Shadow	-11.2332
▁apiKey	-11.2342
Contains	-11.2343
▁superclass	-11.2344
ST	-11.2345
▁difference	-11.2346
Buffers	-11.2346
▁initialValue	-11.2354
DefinitionId	-11.2354
Pages	-11.2362
▁copied	-11.2365
▁True	-11.2365
▁[{}]"	-11.2375
▁performance	-11.2377
cl	-11.238
▁Collector	-11.238
▁entityManager	-11.2383
▁COLUMN	-11.2383
▁jarFile	-11.2385
TimeoutException	-11.2386
MASK	-11.2386
▁models	-11.2387
▁working	-11.2394
▁getAsString	-11.2394
▁envelope	-11.2402
param	-11.2404
▁world	-11.2406
Dist	-11.2407
▁Render	-11.241
▁isPrimitive	-11.241
▁propagate	-11.2411
▁traverse	-11.2414
▁Groovy	-11.2417
▁Executable	-11.242
▁git	-11.2422
▁Descriptor	-11.2425
ge	-11.2428
▁getTimestamp	-11.2438
▁aggs	-11.2444
▁theme	-11.2449
▁Relation	-11.2451
ME	-11.2451
Be	-11.2452
Inventory	-11.2452
Loc	-11.2454
Series	-11.2455
▁Memory	-11.2458
▁checking	-11.2459
BASE	-11.246
lock	-11.2464
▁"["	-11.2468
▁canonical	-11.2472
▁material	-11.2473
▁Domain	-11.2476
▁getEntry	-11.2477
Numeric	-11.2477
ty	-11.2477
▁Const	-11.248
CE	-11.2481
▁JsonArray	-11.2482
Pixel	-11.2482
▁Connector	-11.2487
▁stride	-11.249
IfNeeded	-11.2491
▁getSystem	-11.2504
Codes	-11.2505
▁Perform	-11.251
instance	-11.2511
▁Maven	-11.2511
▁goes	-11.2511
▁longer	-11.2527
public	-11.2528
▁sqrt	-11.2529
▁resume	-11.253
Problem	-11.2536
▁Unit	-11.2536
Platform	-11.2536
▁channels	-11.2539
▁ann	-11.2539
Decision	-11.2539
Parameterized	-11.254
▁mi	-11.2546
▁links	-11.2547
▁explicit	-11.2551
RESOURCE	-11.2551
▁below	-11.2556
▁getHeaders	-11.2556
DeclaringClass	-11.2557
▁MessageFormat	-11.2559
▁getDescriptor	-11.2563
▁containerId	-11.2566
Thing	-11.257
▁leaf	-11.2572
▁pow	-11.2573
Tier	-11.2575
▁Jdbc	-11.2579
▁audio	-11.2579
▁Slice	-11.2582
▁Kind	-11.2582
▁ATTRIBUTE	-11.2583
▁sin	-11.2586
▁jedis	-11.2586
▁transformed	-11.2589
Digits	-11.2592
▁flip	-11.2594
Comp	-11.2598
▁acl	-11.26
byte	-11.2603
▁outcome	-11.2604
▁steps	-11.2604
▁let	-11.2606
Shift	-11.2608
Beans	-11.2608
Plus	-11.261
High	-11.2613
▁Core	-11.2614
▁PUT	-11.2616
▁securityContext	-11.2619
▁att	-11.2626
Audit	-11.2627
▁cn	-11.2627
▁userAgent	-11.2631
▁nc	-11.2635
run	-11.2635
Random	-11.2643
Jvm	-11.2644
▁ErrorCode	-11.2644
▁AST	-11.2648
IgnoreCase	-11.2649
Texture	-11.2649
▁hide	-11.2649
▁pad	-11.2649
▁There	-11.265
▁Variant	-11.2652
▁optionally	-11.2653
DELETE	-11.2653
▁large	-11.2657
▁getSelected	-11.266
▁jp	-11.266
▁readLong	-11.2663
▁propertyValue	-11.2664
Factories	-11.2669
ts	-11.2669
Curve	-11.2669
▁authenticate	-11.267
▁resourceId	-11.2675
▁PROJECT	-11.2681
▁made	-11.2683
ling	-11.2685
ADDRESS	-11.2688
▁serviceContext	-11.269
▁struct	-11.2697
▁getActive	-11.27
attribute	-11.27
Picker	-11.2703
▁itr	-11.2704
▁getParentFile	-11.2705
▁MESSAGE	-11.271
Modification	-11.271
▁css	-11.2711
▁definitions	-11.2712
SP	-11.2714
TODO	-11.2715
[]	-11.2719
▁lazy	-11.2719
NUMBER	-11.2727
▁Trace	-11.2729
▁PathParam	-11.273
Disabled	-11.2734
:2:	-11.2734
▁decl	-11.2738
Categories	-11.2739
▁Extended	-11.274
▁Dataset	-11.2742
▁rgb	-11.2744
▁share	-11.2744
▁prevent	-11.2745
▁squareup	-11.2747
▁bc	-11.2747
Reset	-11.2751
▁Person	-11.2754
▁packages	-11.2754
impl	-11.2755
▁getVariable	-11.2755
Self	-11.2755
Lib	-11.276
sFrom	-11.2765
put	-11.2776
over	-11.2782
▁boundary	-11.2783
17	-11.2783
▁startElement	-11.2783
Syntax	-11.2787
Css	-11.2787
▁HEADER	-11.2793
▁numRows	-11.2794
mp	-11.2795
▁setParent	-11.2804
▁assertThat	-11.2806
▁digits	-11.2808
▁states	-11.281
▁zoom	-11.2812
Multiple	-11.2813
Conn	-11.2814
▁beanName	-11.2815
▁getParam	-11.2816
PropertyValue	-11.2817
Compare	-11.2822
Preview	-11.2822
▁mat	-11.2823
▁commerceOrder	-11.2825
Username	-11.2827
INF	-11.2829
tion	-11.2829
▁addError	-11.2834
idx	-11.2834
▁ads	-11.2837
De	-11.284
▁average	-11.2842
▁PATH	-11.2844
Connected	-11.2845
▁readLock	-11.2847
Func	-11.2847
Switch	-11.2851
▁jobs	-11.2856
▁ORDER	-11.2861
▁Post	-11.2868
▁getOwner	-11.2873
▁Reads	-11.2873
▁dictionary	-11.2874
▁pages	-11.2877
ine	-11.2877
▁Issue	-11.2885
▁Expr	-11.2888
▁https	-11.2889
▁Modify	-11.289
Until	-11.2897
CastException	-11.2897
▁NotFound	-11.2899
Encryption	-11.2901
Known	-11.2902
Dump	-11.2903
▁inv	-11.2913
Hosts	-11.2918
▁partitionId	-11.2918
▁modification	-11.292
ATTR	-11.2921
▁PrintStream	-11.2921
03	-11.2922
style	-11.2925
Configurator	-11.2925
▁Word	-11.2925
▁commandContext	-11.2929
▁Extract	-11.2931
▁probe	-11.2941
▁particular	-11.2941
Between	-11.2941
Attrs	-11.2942
Injection	-11.2944
▁strict	-11.2944
Publish	-11.2949
ONLY	-11.295
▁providers	-11.2957
▁enc	-11.2959
▁So	-11.296
▁Direction	-11.2965
logger	-11.2965
▁Publisher	-11.2973
▁componentType	-11.2976
Append	-11.2978
▁paramName	-11.2979
Coordinates	-11.2981
ml	-11.2981
▁dialect	-11.2985
▁Bootstrap	-11.2992
invalid	-11.2993
When	-11.2995
▁attributeValue	-11.2996
Variant	-11.2998
sWith	-11.3006
▁Executor	-11.3007
sc	-11.3008
▁bufferSize	-11.3016
▁arrays	-11.3019
FailedException	-11.3019
pe	-11.3021
▁TextView	-11.3021
▁sha	-11.3025
▁Topic	-11.3027
▁Button	-11.3028
▁METHOD	-11.3031
Mock	-11.3031
▁terminal	-11.3031
Partial	-11.3037
Updates	-11.3037
▁NOTE	-11.3039
></	-11.304
▁fd	-11.304
▁lon	-11.3041
▁live	-11.3041
Commands	-11.3041
Updater	-11.3044
res	-11.3046
▁minutes	-11.3046
▁keyStore	-11.3047
Grammar	-11.305
Ring	-11.3051
▁byteArray	-11.3051
Private	-11.3053
▁DBConstants	-11.3053
Cloud	-11.306
▁Structure	-11.3061
▁getOutputStream	-11.3061
▁extracted	-11.3061
▁defaults	-11.3061
▁hook	-11.3062
▁stringValue	-11.3064
▁Cancel	-11.3066
off	-11.3066
▁isNotNull	-11.3071
IDs	-11.3071
ARN	-11.3072
hash	-11.3073
▁df	-11.3078
▁Cached	-11.308
Launch	-11.3083
▁hierarchy	-11.3095
address	-11.3097
▁StringTokenizer	-11.3102
▁appName	-11.3103
▁WHERE	-11.3104
▁instruction	-11.3106
▁Atom	-11.3108
▁encrypted	-11.3114
Actual	-11.3122
SUFFIX	-11.3123
▁PagedList	-11.3124
Wildcard	-11.3126
Now	-11.3136
▁card	-11.3139
▁ci	-11.3143
▁reached	-11.3145
Named	-11.3146
▁Parameters	-11.3147
BUFFER	-11.3149
▁Directory	-11.315
▁outputFile	-11.315
SerializedSize	-11.3154
▁subList	-11.3155
Statements	-11.3158
▁dc	-11.3168
Utilities	-11.3169
Where	-11.3171
▁Subject	-11.3174
Partitions	-11.3176
▁linked	-11.3176
Health	-11.3177
▁typed	-11.318
▁fieldValue	-11.3181
header	-11.3185
&	-11.3194
▁conversation	-11.3198
Initialized	-11.3201
▁Retrieves	-11.3205
▁attached	-11.3206
Policies	-11.3216
▁act	-11.3217
▁incrementAndGet	-11.3218
Ad	-11.3218
▁indexName	-11.3223
▁gateway	-11.3224
Nested	-11.3225
▁getFields	-11.3225
▁getStyle	-11.3226
▁te	-11.3227
Bad	-11.3227
▁trying	-11.3231
arg	-11.3231
ping	-11.3231
PK	-11.3233
VM	-11.3234
Rpc	-11.3235
Sheet	-11.3236
▁digit	-11.3236
ag	-11.3244
Pb	-11.3249
range	-11.3253
Procedure	-11.3254
▁occur	-11.3255
▁inst	-11.3256
▁counters	-11.3261
ci	-11.3261
▁Asset	-11.3263
▁setCurrent	-11.3264
▁getConstructor	-11.3268
▁instant	-11.3272
Statistic	-11.3272
License	-11.3278
▁shadow	-11.3283
script	-11.3283
▁evaluation	-11.3285
SecurityGroup	-11.3286
▁fall	-11.3293
▁distinct	-11.3295
ally	-11.3297
▁writeLine	-11.3301
▁advance	-11.3302
▁getEvent	-11.3302
Delivery	-11.3303
▁positions	-11.3304
▁SIZE	-11.3305
▁newLine	-11.3306
Rotation	-11.3309
`	-11.3309
conf	-11.331
Restriction	-11.3311
Aliases	-11.3313
▁locations	-11.3313
▁Snapshot	-11.3314
ServletContext	-11.3314
▁expired	-11.3314
▁automatically	-11.3317
Answer	-11.3318
▁dp	-11.3322
▁addMethod	-11.333
Theme	-11.3331
▁FHIRException	-11.3333
Shutdown	-11.3334
▁By	-11.3335
▁cookies	-11.3338
toString	-11.3339
▁cases	-11.3341
▁onClick	-11.3343
▁50	-11.3344
Notify	-11.3348
Outcome	-11.3349
▁superClass	-11.3354
▁alignment	-11.3355
schema	-11.3355
▁Catalog	-11.3359
empty	-11.336
▁Fragment	-11.3361
Pack	-11.3364
▁TypeMirror	-11.3364
MIN	-11.3365
▁compression	-11.3366
Cardinality	-11.3367
▁hosts	-11.3367
Imports	-11.3368
Convert	-11.3368
Actor	-11.3369
▁operand	-11.337
▁preferred	-11.3371
▁cross	-11.3373
;\	-11.3377
▁immediately	-11.338
▁images	-11.3381
▁samples	-11.3382
rpc	-11.3384
▁bulk	-11.3385
Help	-11.3387
Images	-11.3388
▁performed	-11.3391
Comments	-11.3392
▁half	-11.3393
▁ADD	-11.3393
▁getColor	-11.3397
▁Conversion	-11.3397
▁Implementation	-11.3399
▁getNamespace	-11.3402
▁isInstance	-11.3405
Outer	-11.3405
limit	-11.3408
▁enough	-11.3409
▁isIn	-11.3411
▁aClass	-11.3415
▁atoms	-11.3416
Two	-11.3417
▁clz	-11.3417
Audio	-11.3418
▁Execute	-11.3422
▁distribution	-11.3428
package	-11.3431
▁EntityType	-11.3432
▁small	-11.3434
▁implement	-11.3437
char	-11.3438
Exec	-11.3438
▁Illegal	-11.3439
▁requestContext	-11.3441
Concept	-11.3444
IF	-11.3449
▁deploymentUnit	-11.3449
▁PageContext	-11.3452
Pipe	-11.3453
▁dateTime	-11.3454
▁sep	-11.3456
▁secure	-11.3458
Tracking	-11.3462
Me	-11.3463
▁verbose	-11.3463
▁setTitle	-11.3464
▁Aggregation	-11.3467
▁Iterables	-11.3468
Trans	-11.3468
▁parameterized	-11.3469
▁preference	-11.3471
ComponentType	-11.3473
TextField	-11.3476
▁skipped	-11.3476
▁Hash	-11.3477
Draw	-11.348
▁compact	-11.3481
import	-11.3487
▁getE	-11.3488
Quality	-11.3489
Lat	-11.349
▁effective	-11.3491
▁ODocument	-11.3492
▁sf	-11.3496
▁tm	-11.3497
Balance	-11.3501
('	-11.3503
▁servers	-11.3503
with	-11.3503
Directories	-11.3506
▁rewrite	-11.3508
Bond	-11.3509
▁addStatement	-11.351
NONE	-11.3516
▁Shape	-11.352
ENABLED	-11.3525
▁futures	-11.3529
▁"0"	-11.3532
long	-11.3539
▁getDeclared	-11.3541
Ssl	-11.3545
Feed	-11.3548
▁modifier	-11.355
▁getNew	-11.355
▁overwrite	-11.3553
▁numCols	-11.3554
Defs	-11.3555
Ptr	-11.3555
UPDATE	-11.3557
▁estimate	-11.3561
REF	-11.3561
job	-11.3563
▁installed	-11.3566
▁setVisibility	-11.3568
▁Calculate	-11.357
▁migration	-11.3578
entry	-11.3579
ThreadPool	-11.3579
obj	-11.358
▁paras	-11.358
▁generation	-11.3581
▁resize	-11.3589
▁maxSize	-11.3589
▁bucketName	-11.359
Expired	-11.3591
CH	-11.3592
▁Bit	-11.3592
▁getCluster	-11.3595
▁hint	-11.3595
▁kv	-11.3598
▁Bad	-11.3598
▁TimeZone	-11.36
LONG	-11.3601
Video	-11.3605
Remaining	-11.3607
Translator	-11.3613
▁DMatrixRMaj	-11.3613
))	-11.3621
Replacement	-11.3623
▁si	-11.3626
▁streams	-11.3629
▁mp	-11.3631
▁ObjectName	-11.3634
DynamicQuery	-11.3634
▁trimmed	-11.3643
Co	-11.3649
Quote	-11.3654
▁endTime	-11.3656
▁retrieved	-11.3656
na	-11.3657
TS	-11.3659
▁getNumberOf	-11.3668
▁qName	-11.3669
close	-11.3679
▁sip	-11.3683
cr	-11.3684
▁capture	-11.3685
▁checkFor	-11.3687
▁Close	-11.3689
▁views	-11.369
Encode	-11.3693
ML	-11.3693
▁getScope	-11.3698
▁fis	-11.3701
▁cardinality	-11.3701
Immutable	-11.3704
▁Ovh	-11.3707
▁writable	-11.3711
Nullable	-11.3716
▁redis	-11.372
Currency	-11.3721
▁exclusive	-11.3723
▁Paths	-11.3724
▁Region	-11.3727
▁locked	-11.3728
▁chunks	-11.3728
▁pagination	-11.3729
▁inverse	-11.3737
FACTORY	-11.3739
▁getTemplate	-11.3742
CHAR	-11.3742
▁prior	-11.3743
SessionId	-11.3745
▁readString	-11.3745
▁msgs	-11.3746
▁Caster	-11.3752
▁txt	-11.3756
▁tp	-11.3757
Reporter	-11.3757
▁Flux	-11.3758
▁soapModel	-11.376
▁Op	-11.3762
▁gauge	-11.3764
▁createQuery	-11.3765
inspection	-11.3768
▁apiVersion	-11.3769
case	-11.3771
▁terminate	-11.3774
▁getAs	-11.3776
▁endElement	-11.3776
▁ldap	-11.3777
▁fact	-11.378
▁JsonElement	-11.378
▁bytesRead	-11.3783
-8	-11.3784
19	-11.3784
▁fit	-11.3789
Drop	-11.3791
uri	-11.3792
Mem	-11.3792
▁minute	-11.3797
▁getting	-11.3797
25	-11.3797
▁leader	-11.3799
▁ATTR	-11.3802
▁anything	-11.3803
▁LEFT	-11.3804
ian	-11.3805
▁around	-11.3808
frame	-11.3811
▁getFeature	-11.3813
go	-11.3813
▁player	-11.3819
▁Stax	-11.3819
▁gradient	-11.382
▁logical	-11.3821
▁errorCode	-11.3824
isInfoEnabled	-11.3825
▁Instant	-11.3828
failed	-11.3835
▁floor	-11.3839
▁Tile	-11.3844
Console	-11.3846
▁Framework	-11.3847
▁getNumber	-11.3847
▁mutable	-11.3849
▁RequestMapping	-11.3852
▁expiration	-11.3853
▁INode	-11.3858
▁getGeneric	-11.3861
▁disconnect	-11.387
Caller	-11.387
Soap	-11.3871
▁initialization	-11.3874
Channels	-11.3875
Projection	-11.3877
▁ISO	-11.388
(),	-11.3888
STORE	-11.3889
▁logged	-11.3893
▁Produces	-11.3895
▁Helper	-11.3897
ified	-11.3897
▁Retrieve	-11.3898
Note	-11.3903
Plugins	-11.3906
▁whole	-11.3913
sum	-11.3914
Sorted	-11.3917
▁resourcePath	-11.3917
▁isFile	-11.3917
▁"{	-11.3931
▁beta	-11.3931
▁Spring	-11.3934
▁Merge	-11.3936
▁comma	-11.3936
system	-11.394
▁httpServlet	-11.3945
▁getRemote	-11.3947
Routing	-11.3948
WS	-11.3949
▁except	-11.3952
▁NEW	-11.3952
Fill	-11.396
▁parseBoolean	-11.3962
▁mutation	-11.3965
ArrayList	-11.3966
▁Audit	-11.3967
Cycle	-11.3968
▁getInteger	-11.3974
SOURCE	-11.3978
▁pojo	-11.3981
args	-11.3983
▁IAtomContainer	-11.3987
Servers	-11.399
FOR	-11.399
▁detected	-11.3994
Tools	-11.3996
▁Should	-11.3996
Hit	-11.3997
▁documents	-11.3997
▁Mithra	-11.4002
▁Non	-11.4004
▁sd	-11.4008
▁emptyMap	-11.4008
True	-11.401
▁getOperation	-11.4011
▁EnumSet	-11.4011
MATCH	-11.4014
Ack	-11.4019
Defined	-11.402
▁hidden	-11.402
▁functions	-11.4021
▁Root	-11.4022
Capability	-11.4023
Virtual	-11.4034
▁fos	-11.4036
:\	-11.4036
+"	-11.4036
▁executeQuery	-11.4036
▁getAsJsonObject	-11.4037
location	-11.4039
Peer	-11.4042
▁Layer	-11.4046
▁Principal	-11.4047
Frequency	-11.4051
▁getExtension	-11.4053
▁routing	-11.4056
33	-11.4057
VIEW	-11.4057
▁increase	-11.4059
▁coords	-11.4059
▁Agent	-11.4062
ated	-11.4064
▁jsp	-11.4064
Processed	-11.4065
▁clusterName	-11.407
▁Google	-11.4074
▁blocking	-11.4083
1.	-11.4084
HashCode	-11.4095
Extended	-11.4096
parser	-11.4099
▁encrypt	-11.4105
▁intersection	-11.4105
▁Asn	-11.4106
▁Mongo	-11.4109
Inline	-11.4109
Bulk	-11.411
Quota	-11.4114
Acl	-11.4116
▁Indexed	-11.4119
space	-11.4121
▁grant	-11.4121
Preferences	-11.4123
▁tick	-11.4124
▁Sync	-11.4125
PARAMETER	-11.4125
Mutation	-11.4135
▁StackTrace	-11.4135
Heartbeat	-11.4141
▁addItem	-11.4144
▁appendable	-11.415
▁QueryUtil	-11.4152
▁red	-11.4154
FF	-11.4154
▁Language	-11.4155
▁getLine	-11.4156
Clear	-11.4168
Like	-11.417
ClientException	-11.4171
Embedded	-11.4172
▁Join	-11.4172
▁further	-11.4177
▁memoized	-11.4178
▁Nd	-11.4184
con	-11.4187
Coordinate	-11.4188
▁Conditional	-11.4191
▁multiply	-11.4197
Exit	-11.4198
head	-11.4202
Artifacts	-11.4207
▁getOptions	-11.4207
▁baseUrl	-11.4208
Exact	-11.4212
INVALID	-11.4214
▁ACC	-11.4218
Serializable	-11.4223
▁DAY	-11.4227
▁RESOURCE	-11.4228
▁resourceType	-11.4229
first	-11.4229
▁tz	-11.423
▁rid	-11.4231
INTERVAL	-11.4232
github	-11.4234
▁Polygon	-11.4235
auth	-11.4235
▁declare	-11.4236
▁extend	-11.4236
▁Has	-11.4237
▁getMetaData	-11.4239
▁getFilter	-11.424
rec	-11.4244
AN	-11.4245
pool	-11.4245
▁expanded	-11.4246
▁Hive	-11.4248
si	-11.4251
▁getID	-11.4251
has	-11.4251
▁Ignore	-11.4253
▁styleable	-11.4254
▁Identity	-11.4255
AttributeName	-11.4258
▁GVR	-11.4263
entity	-11.4267
ber	-11.427
▁prepared	-11.427
▁toMap	-11.427
▁Updates	-11.4271
PublicKey	-11.4274
▁rootNode	-11.4277
Surface	-11.4279
▁Progress	-11.4283
▁BOOLEAN	-11.4283
flow	-11.4286
▁inheritDoc	-11.4287
part	-11.429
▁Menu	-11.429
▁returning	-11.4292
▁paramTypes	-11.4292
PROP	-11.4293
drools	-11.4296
▁Evaluation	-11.4296
Share	-11.4305
▁getSymbol	-11.4305
js	-11.4311
ir	-11.4313
▁EC	-11.4317
▁maven	-11.4319
▁LocalDateTime	-11.4321
Idle	-11.4325
▁FLOAT	-11.4325
▁dns	-11.4326
▁commandLine	-11.433
▁replication	-11.4331
Was	-11.4334
▁inflate	-11.4335
▁<%	-11.4335
Complex	-11.4336
be	-11.4337
▁getPassword	-11.4337
▁SESSION	-11.4338
▁directories	-11.4341
Boundary	-11.4344
▁parentNode	-11.4344
▁rowIndex	-11.4346
▁configs	-11.435
▁buffered	-11.4351
Interceptors	-11.4351
Minute	-11.4354
validator	-11.4355
▁CACHE	-11.4356
▁Pre	-11.4358
profile	-11.4363
oid	-11.4366
Js	-11.4366
▁latitude	-11.4366
▁ERR	-11.4367
Checked	-11.4369
▁ON	-11.4369
▁subscriptionId	-11.4371
Documentation	-11.4372
FILTER	-11.4373
Quantity	-11.4373
▁substitution	-11.4374
[%	-11.4381
▁methodBuilder	-11.4385
Fn	-11.4387
DN	-11.4391
▁subset	-11.4393
▁Transport	-11.4396
Migration	-11.44
AccessToken	-11.44
▁Hollow	-11.44
▁parseDouble	-11.44
block	-11.4401
Eval	-11.4403
ff	-11.4406
Offsets	-11.4406
▁opts	-11.4412
▁TypeToken	-11.4413
▁having	-11.4414
Deploy	-11.4415
▁reserved	-11.4417
▁general	-11.4417
▁compatible	-11.4419
▁activation	-11.4427
▁Transform	-11.4427
())	-11.4429
▁Literal	-11.4429
▁implements	-11.443
▁recovery	-11.4433
▁groupBy	-11.4437
▁sr	-11.4437
▁click	-11.444
▁FFDCFilter	-11.4441
▁500	-11.4445
dl	-11.4449
SCHEMA	-11.4449
▁reuse	-11.4449
▁lineNumber	-11.445
Persistent	-11.4452
▁instanceId	-11.4453
Stm	-11.4455
Ordered	-11.4455
oc	-11.4456
▁rawType	-11.4461
▁spaceId	-11.4464
ix	-11.4472
down	-11.4474
▁NaN	-11.4474
▁appender	-11.4475
▁addColumn	-11.4478
BufferSize	-11.4487
task	-11.4488
▁upgrade	-11.4489
▁Var	-11.449
mode	-11.4491
?"	-11.4492
▁ZERO	-11.4494
▁PUBLIC	-11.4498
▁considered	-11.4499
find	-11.4499
NumberOf	-11.45
Exclude	-11.4503
HttpResponse	-11.4506
▁plugins	-11.4512
Hidden	-11.4514
▁Must	-11.4515
queue	-11.4524
CSS	-11.4525
▁Reset	-11.4526
▁addLine	-11.4527
▁grammar	-11.4528
Apply	-11.453
▁classifier	-11.4531
QNAME	-11.4532
Enforcer	-11.4533
▁major	-11.4534
▁UPDATE	-11.4535
▁baseDir	-11.4536
▁categories	-11.4537
▁par	-11.4538
▁currentTime	-11.4542
▁sets	-11.4543
▁toHexString	-11.4543
100	-11.4545
Generation	-11.455
▁getMethods	-11.4551
Registered	-11.4553
spec	-11.4554
▁readOnly	-11.4555
▁marked	-11.4556
▁tier	-11.4561
▁getGroupId	-11.4562
ca	-11.4564
▁creator	-11.4565
▁subsystem	-11.4569
▁ev	-11.4572
▁rand	-11.4576
▁blank	-11.4578
Heap	-11.4579
▁initializer	-11.4584
▁accountId	-11.4584
);"	-11.4584
Slave	-11.4584
Enable	-11.4585
▁Benchmark	-11.4586
right	-11.4592
unknown	-11.4594
Dim	-11.4594
▁JC	-11.4596
▁Position	-11.4596
▁slash	-11.4598
Tick	-11.4598
▁serial	-11.4599
▁hours	-11.4601
▁elementType	-11.4601
▁executable	-11.4602
▁fr	-11.4603
▁Size	-11.4605
Decode	-11.4607
eg	-11.461
▁Rpc	-11.4616
▁PROP	-11.4617
Refs	-11.4618
▁counts	-11.4619
element	-11.462
▁discovery	-11.4623
StartTime	-11.4623
Ticket	-11.4624
active	-11.4625
LEVEL	-11.4628
▁hold	-11.4631
Scenario	-11.4631
Initialization	-11.4635
▁GROUP	-11.4635
▁overflow	-11.4637
▁JsonProperty	-11.4641
Already	-11.4644
▁focus	-11.4645
▁Static	-11.4645
▁stopped	-11.4647
▁hi	-11.4647
▁SERVER	-11.4649
▁better	-11.4651
Alt	-11.4652
▁longitude	-11.4652
▁discard	-11.4659
▁AS	-11.4659
▁getUsername	-11.4662
Outline	-11.4665
Resolved	-11.4666
▁Print	-11.4675
STREAM	-11.4675
Printer	-11.4677
ities	-11.4682
▁represented	-11.4682
▁Will	-11.4685
▁getStream	-11.4693
AC	-11.4694
Sentence	-11.4696
OPTION	-11.47
▁choose	-11.4701
▁EL	-11.4701
ValueAsString	-11.4704
▁External	-11.4706
▁assertion	-11.4708
Pid	-11.4711
▁produce	-11.4712
▁signed	-11.4713
Face	-11.4713
▁genericType	-11.4716
cast	-11.4716
eat	-11.4723
▁Export	-11.4724
izer	-11.473
▁getAnnotations	-11.473
▁CSV	-11.473
lo	-11.4731
sMap	-11.4731
▁weights	-11.4732
pc	-11.4735
Special	-11.4735
▁setLength	-11.4736
▁mb	-11.4736
▁getScheme	-11.4742
Mouse	-11.4745
▁computed	-11.475
▁aliases	-11.4751
▁OPEN	-11.4755
▁pageContext	-11.4757
▁Debug	-11.4757
▁ab	-11.4759
▁keystore	-11.4761
▁OR	-11.4762
Low	-11.4762
security	-11.4767
▁getNodeName	-11.4772
OptionValue	-11.4772
▁MessageDigest	-11.4777
▁Case	-11.4779
▁FFDC	-11.4779
▁Vec	-11.478
US	-11.4782
PC	-11.4784
▁DevFailed	-11.4786
position	-11.4787
configuration	-11.4791
▁ack	-11.4792
▁built	-11.4794
ION	-11.4799
access	-11.4801
▁secondary	-11.4802
RG	-11.4804
Ns	-11.4804
DefaultInstance	-11.4807
parse	-11.4809
▁getModule	-11.4809
ErrorCode	-11.4813
▁getEndpoint	-11.4816
▁executing	-11.4817
▁getTypeName	-11.4818
▁configFile	-11.4821
▁tenantId	-11.4829
di	-11.4829
▁TIME	-11.483
▁buckets	-11.483
Proposal	-11.4832
report	-11.4838
png	-11.4843
▁locate	-11.4843
PolicyRequest	-11.4844
▁rotate	-11.4847
▁flat	-11.4848
▁sourceFile	-11.485
Dependent	-11.4851
▁Display	-11.4853
FormatException	-11.4854
Bin	-11.4855
dr	-11.4857
▁getByte	-11.4859
▁Pdf	-11.4862
ib	-11.4865
print	-11.4865
▁annotationClass	-11.4876
▁printer	-11.4876
▁explicitly	-11.4878
Illegal	-11.4881
Realm	-11.4883
▁handshake	-11.4885
stop	-11.4885
▁sessions	-11.4885
▁Driver	-11.4894
▁horizontal	-11.4897
▁"--	-11.49
▁CountDownLatch	-11.49
▁Bucket	-11.4904
Datastore	-11.4906
▁getIfc	-11.4907
▁MBean	-11.4907
LY	-11.4912
JsonObject	-11.4913
▁associate	-11.4914
▁subtract	-11.4915
▁propertyType	-11.4915
▁reject	-11.4922
▁cli	-11.4923
WIDTH	-11.4923
▁Criteria	-11.4924
▁readByte	-11.4924
ical	-11.4925
▁Transactional	-11.4925
▁31	-11.4927
▁ResourceBundle	-11.4927
Related	-11.4927
▁fp	-11.4928
▁expire	-11.4931
Resolve	-11.4932
▁BASE	-11.4933
Indexed	-11.4938
fe	-11.4939
▁Blob	-11.494
▁touch	-11.4949
▁US	-11.4951
▁individual	-11.4952
Detection	-11.4954
CREATE	-11.4954
Notifier	-11.4955
CC	-11.4957
Profiles	-11.4963
40	-11.497
▁toURI	-11.4971
▁Struct	-11.4972
▁BAD	-11.4973
▁leading	-11.4977
▁navigation	-11.4978
SE	-11.4979
▁getLanguage	-11.4981
▁enclosing	-11.4982
role	-11.4982
▁unsafe	-11.4985
Closure	-11.4985
▁opcode	-11.4991
Scalar	-11.4998
▁Diagnostic	-11.5002
▁illegal	-11.5005
▁getM	-11.5006
▁39	-11.5007
OperationContext	-11.5012
generated	-11.5012
▁epoch	-11.5012
Coord	-11.5014
Inst	-11.5015
▁quality	-11.5016
▁isTraceO	-11.5016
Kit	-11.5017
Fact	-11.5021
▁formula	-11.5022
▁executeGet	-11.5024
KeyValue	-11.5025
▁accepted	-11.5028
▁tolerance	-11.5031
▁week	-11.5035
▁stackTrace	-11.5036
▁ec	-11.504
StreamReader	-11.5042
▁templates	-11.5042
Anchor	-11.5042
▁Exchange	-11.5044
▁lb	-11.5045
act	-11.5045
▁texture	-11.5046
▁Writes	-11.5048
▁getShort	-11.5049
Shard	-11.5051
ROOT	-11.5052
Creating	-11.5053
▁createOrUpdate	-11.5053
▁"#	-11.5056
▁Retry	-11.5059
Resp	-11.5061
▁SecurityContext	-11.5065
▁Transition	-11.5069
px	-11.5072
Configured	-11.5074
▁Please	-11.5075
Scheduled	-11.5075
▁Logging	-11.5078
▁plain	-11.5078
▁scopes	-11.5079
EndElement	-11.508
▁newly	-11.5081
Leaf	-11.5082
ud	-11.5089
ever	-11.509
Grant	-11.5091
▁Closure	-11.5093
▁outbound	-11.5093
Written	-11.5096
▁Ldap	-11.5097
▁fraction	-11.51
Should	-11.5104
msg	-11.5105
▁currentNode	-11.5106
▁TO	-11.5108
▁My	-11.5109
▁rowKey	-11.5111
▁pred	-11.5111
▁XMLEvent	-11.5114
▁csv	-11.5114
75	-11.5114
Maintenance	-11.5121
CODES	-11.5125
▁verb	-11.5127
Gradient	-11.5132
▁14	-11.5133
Classification	-11.5135
▁Skip	-11.5143
▁decrypt	-11.5143
▁MSG	-11.5146
Room	-11.515
▁ChannelHandler	-11.5153
▁targets	-11.5155
▁CP	-11.5156
▁End	-11.5159
Counters	-11.5161
▁onFailure	-11.5164
▁fromResponse	-11.5165
▁INDEX	-11.5165
Endpoints	-11.5167
▁ie	-11.517
▁EntityManager	-11.517
RequestBuilder	-11.5174
▁Pool	-11.5178
▁possibly	-11.5178
PAGE	-11.5179
▁FS	-11.5182
▁proceed	-11.5183
▁decoding	-11.5183
Descriptions	-11.5185
lt	-11.5185
▁takes	-11.519
Vec	-11.5192
▁rectangle	-11.5193
$"	-11.5194
▁pull	-11.5196
▁ancestor	-11.5198
manager	-11.5198
▁booleanValue	-11.5199
▁encountered	-11.52
▁emptySet	-11.52
▁PI	-11.5206
Ok	-11.5207
▁inserted	-11.5209
▁tok	-11.521
Original	-11.5214
Hour	-11.5216
▁ENTITY	-11.5217
Secure	-11.5218
▁getRule	-11.5223
▁jobName	-11.5227
▁LOCAL	-11.5228
ak	-11.5228
▁vals	-11.523
color	-11.5231
▁vertical	-11.5231
▁effect	-11.5232
_4	-11.5233
▁sec	-11.5236
container	-11.5238
▁setTime	-11.5239
Jdbc	-11.5242
▁Insert	-11.5244
Defaults	-11.5245
▁Hashtable	-11.5247
▁dup	-11.5248
▁ls	-11.5249
QUERY	-11.5249
▁appendChild	-11.5251
▁pk	-11.5253
▁training	-11.5254
Explicit	-11.5256
▁classloader	-11.5256
Mutable	-11.5257
▁concept	-11.526
▁camera	-11.5264
▁nm	-11.5264
▁getBlock	-11.5267
▁varName	-11.5267
Bag	-11.527
▁play	-11.5271
▁norm	-11.5272
▁problems	-11.5272
▁Fetch	-11.5277
Placement	-11.528
Reg	-11.5281
dm	-11.5283
tp	-11.5288
Strict	-11.5289
▁salt	-11.5302
Specs	-11.5303
▁addresource	-11.5304
▁Utility	-11.5305
OrBuilder	-11.5306
▁sending	-11.5306
▁getProtocol	-11.5307
▁CLIENT	-11.5307
▁BYTE	-11.5313
Utility	-11.5314
▁ES	-11.5321
▁Construct	-11.5322
▁rm	-11.5325
sInner	-11.5326
▁Cipher	-11.5327
EventType	-11.5327
▁DateFormat	-11.5329
TimeZone	-11.533
Duplicate	-11.5331
55	-11.5331
▁getUuid	-11.5332
▁middle	-11.5334
▁datatype	-11.5335
▁minus	-11.5337
▁CONFIG	-11.5338
▁pixels	-11.5341
Authenticator	-11.5346
ia	-11.5348
▁ManagedObject	-11.5348
▁onNext	-11.5349
▁dependent	-11.5349
ear	-11.5349
▁callbacks	-11.5352
Lower	-11.5358
▁setContentType	-11.536
▁orientation	-11.536
▁columnNames	-11.5361
Clock	-11.5363
▁QualifiedName	-11.5363
▁subclass	-11.5365
▁consider	-11.537
my	-11.537
▁OperationFailed	-11.5373
▁evaluator	-11.5378
▁Unsupported	-11.5379
▁Move	-11.5381
▁ks	-11.5384
ENTITY	-11.5386
▁hostName	-11.5386
Popup	-11.5386
▁JPanel	-11.5388
Reduce	-11.539
▁exactly	-11.5393
Aspect	-11.5397
Player	-11.5398
▁General	-11.54
▁idle	-11.5408
▁Work	-11.5411
▁Plan	-11.5414
Relative	-11.5419
ab	-11.542
▁agg	-11.542
SI	-11.5421
Facade	-11.5422
▁mouse	-11.5426
▁getProxy	-11.5427
▁ACCESS	-11.5427
Hub	-11.5428
Attached	-11.5434
Family	-11.544
▁Flowable	-11.5442
▁really	-11.5444
▁RETURN	-11.5445
47	-11.5446
Install	-11.5446
Week	-11.545
▁shell	-11.5452
HANDLER	-11.5454
ChangeEvent	-11.5459
compiler	-11.546
▁leave	-11.546
▁Git	-11.5462
▁INTERNAL	-11.5463
▁caught	-11.5464
▁openStream	-11.5466
Dom	-11.5467
▁setInt	-11.5468
Substitution	-11.5469
▁"{}	-11.5471
StackTrace	-11.5472
Grpc	-11.5477
Alternatives	-11.5483
▁addLast	-11.5484
▁walk	-11.5485
total	-11.5485
▁fmt	-11.5486
▁tf	-11.5486
Needed	-11.5489
Zoom	-11.549
Fallback	-11.5491
▁ServletRequest	-11.5492
09	-11.5506
▁crc	-11.5506
▁executeDescribe	-11.5507
Models	-11.5508
▁relativePath	-11.5508
▁isActive	-11.5508
▁dec	-11.5513
AST	-11.5514
▁40	-11.5519
▁Transfer	-11.5522
▁TreeNode	-11.5523
▁beginning	-11.5525
handle	-11.5526
▁getURI	-11.5526
BEAN	-11.5528
DO	-11.5529
Digit	-11.5529
99	-11.5531
34	-11.5531
DE	-11.5533
Ticker	-11.554
▁overridden	-11.554
▁Interceptor	-11.5541
IT	-11.5542
Singleton	-11.5544
▁getBuild	-11.5544
graph	-11.5547
AUTH	-11.5548
▁getDimension	-11.5548
▁CollectionUtils	-11.555
▁properly	-11.5552
ne	-11.5556
Analyzer	-11.5556
▁SortedSet	-11.5556
Allow	-11.5557
COLOR	-11.5559
Leader	-11.5559
▁Payment	-11.5559
▁ExecutorService	-11.5561
Symbols	-11.5565
▁Lookup	-11.5565
▁Canvas	-11.5569
▁cycle	-11.5576
▁outside	-11.5576
Lon	-11.5578
▁WebElement	-11.5579
▁addBody	-11.558
▁Injection	-11.5584
Animator	-11.5585
Footer	-11.5586
▁RULE	-11.5591
▁train	-11.5591
txt	-11.5592
Align	-11.5593
▁lo	-11.5594
▁whitespace	-11.5595
left	-11.5595
Geo	-11.5601
▁Drawable	-11.5602
▁isTrue	-11.5604
Pairs	-11.5608
▁getPersistence	-11.5609
▁margin	-11.5611
▁alg	-11.5613
▁journal	-11.5613
▁nonce	-11.5615
▁ZipEntry	-11.5617
▁setIs	-11.5617
:%	-11.5619
Light	-11.5619
▁ra	-11.5622
▁Upload	-11.5623
▁isFirst	-11.5628
Percent	-11.5629
▁TypeVariable	-11.5632
global	-11.5632
▁SUCCESS	-11.5632
▁RIGHT	-11.5635
debug	-11.5636
▁sys	-11.5636
▁Selector	-11.5639
▁CREATE	-11.5639
TASK	-11.564
SHA	-11.564
▁scalar	-11.5641
▁One	-11.5641
60	-11.5643
▁BitSet	-11.5643
sib	-11.5645
▁returnValue	-11.5648
▁latch	-11.5651
PackageName	-11.5651
Rank	-11.5652
▁macro	-11.5656
Rev	-11.5658
▁aux	-11.5661
▁VM	-11.5663
Capture	-11.567
▁getSegment	-11.5671
▁ORecord	-11.5676
sample	-11.5677
26	-11.568
▁BufferedWriter	-11.5682
unit	-11.5684
Streams	-11.5684
▁compress	-11.5684
▁JMSException	-11.5685
▁starts	-11.5686
▁Associate	-11.5688
▁splits	-11.5691
▁Currency	-11.5692
Band	-11.5692
▁elapsed	-11.5695
stack	-11.5696
▁vec	-11.5698
▁Split	-11.5698
Broadcast	-11.5699
▁legacy	-11.5703
35	-11.5703
▁JsonParser	-11.5703
Lexer	-11.5704
▁toMillis	-11.5705
▁bos	-11.5706
▁artifactId	-11.5712
▁After	-11.5712
▁openConnection	-11.5713
sa	-11.572
▁Comment	-11.5724
▁capabilities	-11.5724
▁unable	-11.5728
Localization	-11.5731
▁tv	-11.5734
▁moduleName	-11.5736
▁imports	-11.5737
▁As	-11.5741
▁CurrencyPair	-11.5747
LIMIT	-11.575
▁Paint	-11.5751
▁potential	-11.5753
▁trailing	-11.5755
▁belongs	-11.5755
▁gap	-11.5755
▁Relationship	-11.5756
EXCEPTION	-11.576
▁QueryParam	-11.5764
▁getFieldName	-11.5765
▁offsets	-11.5767
▁Raw	-11.577
Included	-11.5776
▁128	-11.5777
▁choice	-11.5784
▁getGlobal	-11.5785
ORDER	-11.5789
▁isClosed	-11.5794
XmlElementDecl	-11.5794
▁RandomVariable	-11.5794
Choice	-11.5794
▁Unknown	-11.58
Blocking	-11.5804
Recursive	-11.5807
▁rw	-11.581
▁Replace	-11.5811
▁getWriter	-11.5815
▁foo	-11.5816
▁toSet	-11.5823
Fix	-11.5826
ReadOnly	-11.5828
▁Admin	-11.5829
▁Messaging	-11.583
▁sendMessage	-11.5832
▁obtained	-11.5836
More	-11.5837
▁Docker	-11.5837
ob	-11.5839
MB	-11.5839
▁getPartition	-11.584
▁getFileName	-11.5843
prepareStatement	-11.5845
▁ST	-11.5845
Sig	-11.5846
▁Password	-11.5847
Pixels	-11.5848
▁unknownFields	-11.5849
FAILED	-11.5851
▁beanClass	-11.5854
▁placeholder	-11.5854
ToFile	-11.5856
RESPONSE	-11.5857
Placeholder	-11.5857
▁mac	-11.586
Iteration	-11.5861
Signal	-11.5864
▁actionRequest	-11.5864
Alarm	-11.5867
▁docker	-11.5871
▁corner	-11.5872
Unavailable	-11.5876
▁entityId	-11.5877
▁cells	-11.5878
▁Jvm	-11.5881
▁getRole	-11.5881
▁WRITE	-11.5884
dc	-11.5885
Horizontal	-11.5886
▁setMessage	-11.5892
Tokenizer	-11.5894
Lazy	-11.5894
Candidates	-11.5895
▁versionId	-11.5896
▁dict	-11.5896
▁ENGLISH	-11.5897
▁qualifiedName	-11.5903
append	-11.5904
oo	-11.5904
▁broker	-11.5906
▁doFilter	-11.5911
▁room	-11.5912
▁Destination	-11.5913
▁getCollection	-11.5917
handler	-11.592
TEMPLATE	-11.5922
SequenceNumber	-11.5923
ok	-11.5924
▁setUser	-11.5927
Fast	-11.5927
▁getStackTrace	-11.5928
▁emitter	-11.5928
▁isn	-11.5928
▁OWL	-11.5934
HealthCheck	-11.5935
Normal	-11.5935
SH	-11.5935
Const	-11.5943
▁INTEGER	-11.5949
Upgrade	-11.5949
▁cons	-11.5949
Maker	-11.5951
▁setOn	-11.5951
▁zk	-11.5952
Generate	-11.596
Net	-11.5962
▁doGet	-11.5963
▁TypeReference	-11.5965
▁coord	-11.5966
▁readable	-11.597
Compatibility	-11.5976
▁bridge	-11.5982
▁complex	-11.5983
▁QueryResult	-11.5984
▁deep	-11.5985
Subsystem	-11.5987
▁Controller	-11.5987
▁Now	-11.5988
▁derived	-11.5989
TYPES	-11.599
▁classNode	-11.5991
▁Given	-11.5992
▁dateFormat	-11.5997
▁Used	-11.5999
▁purge	-11.6001
domain	-11.6001
Compound	-11.6002
Times	-11.6004
▁setRequest	-11.6013
▁getContentType	-11.6015
KeyStore	-11.6018
Claim	-11.6021
Cipher	-11.6025
unused	-11.6026
▁prefs	-11.6033
Mean	-11.6036
Catch	-11.6038
▁endpoints	-11.6039
▁schemaName	-11.604
▁plane	-11.604
TransitGateway	-11.6047
▁Toast	-11.6051
▁getSql	-11.6052
UserSegmentRel	-11.6052
▁getJson	-11.6055
Stamp	-11.6059
Positive	-11.6062
Possible	-11.6064
▁getOriginal	-11.6068
sort	-11.6068
▁OUT	-11.6072
▁lp	-11.6073
EXPRESSION	-11.6074
▁had	-11.6076
▁mongo	-11.6077
▁getPlugin	-11.6077
53	-11.6077
Transactional	-11.608
▁Reflection	-11.6082
▁XmlPullParser	-11.6085
▁CmsUUID	-11.6087
▁Sip	-11.6091
▁Codec	-11.6091
▁'{}'"	-11.6094
▁indicate	-11.6094
▁mandatory	-11.6095
▁getRequired	-11.6096
▁diag	-11.6096
▁getPoint	-11.6097
based	-11.6101
▁power	-11.6103
Membership	-11.6103
component	-11.611
Dirs	-11.6111
▁attempts	-11.6112
Conversation	-11.6117
Faces	-11.6118
▁divide	-11.6122
FieldType	-11.6122
-"	-11.6124
▁overriding	-11.6124
▁di	-11.6125
day	-11.6126
▁getAttachment	-11.6131
▁SUB	-11.6132
▁dashboard	-11.6139
04	-11.614
37	-11.6141
▁Procedure	-11.6141
Ind	-11.6145
include	-11.6147
Difference	-11.6148
Restore	-11.6149
▁RequestMethod	-11.6149
▁analyze	-11.6154
UserId	-11.6154
Fraction	-11.6156
▁keyValue	-11.6161
▁war	-11.6161
ible	-11.6162
▁namespaces	-11.6165
▁compiled	-11.6166
▁spaces	-11.6166
Vertical	-11.6167
Navigation	-11.6169
Dimensions	-11.617
▁CacheEntry	-11.6173
comp	-11.6173
▁sid	-11.6175
Executable	-11.6178
▁NEXT	-11.618
▁">"	-11.6182
▁Active	-11.6184
52	-11.6186
cluster	-11.6186
ids	-11.6189
▁commercePrice	-11.6189
LOCATION	-11.6195
▁interceptors	-11.6195
EEnum	-11.6195
Place	-11.6195
Portal	-11.6197
scale	-11.6198
▁entire	-11.6206
▁Attachment	-11.6208
▁clusters	-11.6211
There	-11.6211
▁MotionEvent	-11.6211
/%	-11.6212
▁raf	-11.6214
Journal	-11.622
Cleanup	-11.622
Configurer	-11.6221
Effect	-11.6222
Epoch	-11.6222
pt	-11.6224
▁Mail	-11.6225
▁Chain	-11.623
▁Don	-11.623
▁accepts	-11.623
▁SqlType	-11.6233
▁Missing	-11.6235
▁VisibleForTest	-11.6235
▁calculated	-11.6236
Since	-11.6241
Lexicon	-11.6241
▁listBy	-11.6244
Bundler	-11.6246
Dialect	-11.6247
MP	-11.6248
Cols	-11.6248
▁authority	-11.6249
WRITE	-11.625
▁everything	-11.6251
▁Resources	-11.6253
▁reflection	-11.6255
Identifiers	-11.6255
col	-11.6257
Accumulator	-11.6259
You	-11.6259
BagConstraints	-11.6259
▁business	-11.6261
▁Enable	-11.6261
POOL	-11.6263
CLIENT	-11.6265
▁ind	-11.6265
▁Layout	-11.6271
▁Persistent	-11.6273
▁addField	-11.6274
reference	-11.6275
▁Archive	-11.6276
▁maps	-11.6277
▁classname	-11.6278
▁indicating	-11.6279
▁Gson	-11.628
Invoker	-11.628
▁startup	-11.6282
▁CmsStringUtil	-11.6285
▁Also	-11.6287
▁Completable	-11.6287
issues	-11.629
▁simply	-11.6296
▁NODE	-11.6296
▁fullName	-11.6298
ToBe	-11.6298
▁fld	-11.6301
▁contract	-11.6303
Cpu	-11.6304
▁allocation	-11.6309
ted	-11.6312
50	-11.6312
▁analyzer	-11.6313
▁contentLength	-11.6313
Outbound	-11.6317
CacheModel	-11.6321
▁Dap	-11.6323
▁Errors	-11.6324
▁Maps	-11.6326
MONTH	-11.6327
▁doPrivileged	-11.6328
▁Topology	-11.6329
Coverage	-11.633
PoolSize	-11.6331
Characters	-11.6331
▁256	-11.6333
Samples	-11.6333
▁ops	-11.6334
ld	-11.6334
POSITION	-11.6335
▁documentation	-11.6335
▁Main	-11.6336
Unsafe	-11.6339
▁expires	-11.634
▁WebDriver	-11.6341
EN	-11.6341
▁reflect	-11.6345
Modifiers	-11.6347
▁getEnvironment	-11.6348
ung	-11.6348
▁care	-11.6349
▁MESSAGES	-11.6349
▁getColumns	-11.6352
▁createNew	-11.6352
▁allocated	-11.6353
▁dev	-11.6353
▁imported	-11.6354
▁CENTER	-11.6356
proxy	-11.6356
▁alternate	-11.6357
module	-11.6359
2.	-11.6363
▁upperBound	-11.6365
Criterion	-11.6366
Attachments	-11.6367
Bool	-11.6367
False	-11.6372
Macro	-11.6372
▁getPayload	-11.6374
▁AtomicInteger	-11.6375
▁Category	-11.6376
Implicit	-11.6376
▁implicit	-11.6378
▁EVENT	-11.6381
can	-11.6384
command	-11.6385
▁Headers	-11.6387
Equality	-11.639
Mirror	-11.6391
▁atts	-11.6391
INFINITY	-11.6392
▁SHORT	-11.6395
▁ctor	-11.6398
▁rt	-11.6398
▁unless	-11.6399
\":	-11.6399
SHORT	-11.6401
Router	-11.6401
Signing	-11.6405
NE	-11.6408
expression	-11.6412
▁awt	-11.6414
▁Chunk	-11.6414
OnClickListener	-11.6414
▁writeUTF	-11.6416
▁RESULT	-11.6417
▁going	-11.6418
pr	-11.6419
▁blockSize	-11.6419
▁addValue	-11.642
da	-11.6422
WithHttp	-11.6423
▁sslContext	-11.6425
Nav	-11.6427
▁Generates	-11.6427
▁httpMethod	-11.6427
▁setSource	-11.6428
▁encryption	-11.643
▁pp	-11.6431
ErrorException	-11.6433
▁getIdentity	-11.6434
▁Dialog	-11.6435
▁getDomain	-11.6438
▁mime	-11.644
Assertion	-11.6441
▁temporal	-11.6443
Business	-11.6443
Compatible	-11.6444
▁jwt	-11.6445
ENCODING	-11.6446
▁BiFunction	-11.6448
PP	-11.6453
FromString	-11.6453
Callbacks	-11.6457
▁Pure	-11.6457
NodeId	-11.6461
▁along	-11.6462
ln	-11.6465
tx	-11.6466
El	-11.6468
▁contextPath	-11.6468
▁depending	-11.6469
cm	-11.6469
▁graphics	-11.6474
▁Generated	-11.6475
Ignored	-11.6477
ov	-11.6481
▁remainder	-11.6483
▁getRepository	-11.6484
▁rep	-11.6484
AndSet	-11.6484
▁smaller	-11.6486
▁";	-11.6488
▁Diff	-11.6489
VAR	-11.6495
▁mismatch	-11.6499
▁ifNoneMatch	-11.65
▁conv	-11.6504
▁turn	-11.6505
red	-11.6506
▁ge	-11.6507
fc	-11.6511
Docs	-11.6512
▁cancelled	-11.6513
▁pick	-11.6519
▁getR	-11.652
▁looking	-11.6522
Reservation	-11.6522
▁&=	-11.6523
TaskId	-11.6526
▁currentValue	-11.653
(%	-11.6531
▁ResponseEntity	-11.6532
SecurityManager	-11.6535
height	-11.6535
▁ARRAY	-11.6535
▁getOrder	-11.6536
md	-11.6537
▁ONE	-11.6539
sCount	-11.654
MR	-11.654
▁claim	-11.6545
▁DocumentBuilder	-11.6547
▁handleException	-11.655
▁cap	-11.655
cs	-11.6555
SESSION	-11.6556
▁kill	-11.656
▁YEAR	-11.6561
Void	-11.6565
My	-11.6567
par	-11.6567
▁Thrift	-11.6573
unmodifiableList	-11.6573
▁assertNotNull	-11.6577
▁inference	-11.6578
Seed	-11.6579
Handshake	-11.6581
▁Lifecycle	-11.6583
Logs	-11.6584
▁Singularity	-11.6586
▁Subscriber	-11.659
Arc	-11.6595
▁getClientId	-11.6595
▁startDate	-11.6596
▁traversal	-11.6598
Visit	-11.6599
▁Maybe	-11.6601
OAuth	-11.6603
▁Virtual	-11.661
CL	-11.6611
Polygon	-11.6612
▁headerName	-11.6614
Rec	-11.6618
▁13	-11.6621
▁ratio	-11.6622
▁Mock	-11.6625
PrivilegedAction	-11.6626
Directive	-11.6626
Streaming	-11.6629
RandomAccessFile	-11.663
Processors	-11.663
▁keyType	-11.6633
Increment	-11.6635
SinglePage	-11.6635
▁IPv	-11.6636
▁discount	-11.6639
Tenant	-11.664
▁clip	-11.6642
▁getA	-11.6643
FieldValue	-11.6643
Observable	-11.6649
▁guid	-11.6651
▁xsp	-11.6655
foo	-11.6656
▁EXTRA	-11.6656
meta	-11.6656
▁generics	-11.6657
partition	-11.6658
▁{0}	-11.666
Cls	-11.6661
ACCESS	-11.6661
▁"#"	-11.6662
70	-11.6664
consume	-11.6666
▁third	-11.6667
OkT	-11.6669
▁Metrics	-11.667
ack	-11.6671
▁getT	-11.6673
▁pivot	-11.6673
▁throwFeat	-11.6675
▁currentPos	-11.6676
XPath	-11.6676
▁AttributeValue	-11.668
▁"+	-11.6681
Scoped	-11.6682
▁Manifest	-11.6685
ps	-11.6685
▁getHttp	-11.6687
▁pod	-11.6688
▁Embedded	-11.669
▁slave	-11.6699
▁Clear	-11.67
rate	-11.67
▁toBytes	-11.6701
sOf	-11.6702
▁jvm	-11.6704
Break	-11.6705
SUB	-11.6705
▁ee	-11.671
▁nav	-11.6711
▁orders	-11.6711
▁parents	-11.6712
Inclusive	-11.6712
▁getArguments	-11.6717
▁RecyclerView	-11.672
Buckets	-11.6722
ServiceInterface	-11.6723
Coords	-11.6724
▁QueryBuilder	-11.6725
NodeType	-11.6726
uuid	-11.6728
▁ptr	-11.6735
Adding	-11.6735
95	-11.6736
▁MPS	-11.6737
▁Score	-11.6741
▁writeMessage	-11.6741
Assigned	-11.6742
Containers	-11.6742
Assign	-11.6743
Vertices	-11.6744
▁isNaN	-11.6744
Recovery	-11.6749
Declarations	-11.675
▁jms	-11.6751
ByKey	-11.6754
▁getApi	-11.6755
pack	-11.6755
fa	-11.6757
▁ob	-11.6758
▁recording	-11.676
▁rootPath	-11.6762
▁WebApplication	-11.6764
▁replica	-11.6768
▁able	-11.6769
▁executeList	-11.677
_1_0	-11.6771
▁rtn	-11.6773
▁JLabel	-11.6774
▁projectName	-11.6776
Associations	-11.6777
work	-11.6777
throw	-11.6778
▁align	-11.6784
▁Thrown	-11.6785
▁Jedis	-11.6787
▁toFile	-11.6788
bin	-11.6788
timeout	-11.6788
▁setField	-11.6789
EC	-11.6794
▁alphabet	-11.6796
Activation	-11.6797
uc	-11.6797
Absolute	-11.6799
▁messageId	-11.68
APP	-11.6802
▁severity	-11.6808
Exist	-11.6808
▁metricName	-11.681
▁requirement	-11.6811
▁detach	-11.6817
▁cw	-11.6817
Watcher	-11.6821
Err	-11.6825
ow	-11.6826
▁IF	-11.6826
▁Period	-11.6832
▁timeZone	-11.6834
JCudaDriver	-11.6836
▁descr	-11.684
▁retries	-11.6844
▁Encoding	-11.6848
Instant	-11.6848
▁pom	-11.6849
PROPERTIES	-11.685
▁Portlet	-11.6852
▁getLevel	-11.6853
▁building	-11.6855
▁dfs	-11.6859
▁Section	-11.686
Best	-11.686
▁very	-11.6862
send	-11.6863
Fleet	-11.6864
Chunks	-11.6865
▁correctly	-11.6865
jsp	-11.6867
▁lexer	-11.6868
nt	-11.687
▁RequestContext	-11.6872
mail	-11.6876
Country	-11.6876
▁fold	-11.6878
▁inflater	-11.6883
▁configurations	-11.6883
Recorder	-11.6885
EntityType	-11.6885
ure	-11.689
ListenableFuture	-11.6891
DR	-11.6892
pm	-11.6894
NonNull	-11.6894
▁recycle	-11.6895
▁Worker	-11.6897
sh	-11.6902
▁getChildNodes	-11.6905
ManagerFactory	-11.6909
Camera	-11.691
▁getDestination	-11.691
Trade	-11.6911
▁getSubject	-11.6913
▁chaining	-11.6915
servlet	-11.6916
Pin	-11.6916
▁VirtualMachine	-11.6918
Normalized	-11.692
▁getTags	-11.692
Inbound	-11.6923
WebSocket	-11.6927
Meter	-11.693
▁KeyValue	-11.6933
▁JCR	-11.6936
CS	-11.6937
▁SOURCE	-11.6938
▁ANY	-11.6938
▁population	-11.6939
Live	-11.6941
500	-11.6941
▁MD	-11.6943
Signed	-11.6946
▁upon	-11.6946
Receive	-11.6947
▁logp	-11.6948
Blank	-11.6949
sec	-11.695
▁quot	-11.695
▁wb	-11.6951
KeyPair	-11.6952
Sdk	-11.6952
▁privacy	-11.6953
Describe	-11.6954
Expiration	-11.6954
▁isOpen	-11.6956
META	-11.6958
▁happens	-11.6961
LABEL	-11.6961
▁Timeout	-11.6964
▁isInterface	-11.6965
home	-11.6965
Cap	-11.6966
▁getInternal	-11.6967
▁getN	-11.6968
▁setSize	-11.6968
▁preferences	-11.6969
▁deferred	-11.6973
▁scene	-11.6975
safe	-11.6975
▁OIdentifiable	-11.6975
▁del	-11.6978
▁getI	-11.6981
▁getIn	-11.6983
Mixin	-11.6984
▁VISIBLE	-11.6984
▁multipart	-11.6984
▁compound	-11.6987
processor	-11.6989
Modify	-11.699
▁QUERY	-11.6993
Reserved	-11.6995
▁useful	-11.6998
▁wire	-11.6998
▁docId	-11.6999
▁follow	-11.7003
▁getMember	-11.7006
tic	-11.7008
pl	-11.7009
Compat	-11.7011
▁Soy	-11.7011
▁setTarget	-11.7012
batch	-11.7017
internal	-11.7019
IM	-11.702
groups	-11.702
▁executeDelete	-11.7021
▁getItems	-11.7022
▁nextEvent	-11.7022
▁LINE	-11.7022
▁Signal	-11.7026
▁currentState	-11.7027
▁bp	-11.703
Whitespace	-11.7032
Verification	-11.7036
▁rsp	-11.704
▁decorator	-11.7041
PARENT	-11.7042
▁addComponent	-11.7044
record	-11.7044
▁getRawType	-11.7046
▁guess	-11.7047
▁oc	-11.7049
▁iface	-11.7049
HOST	-11.705
▁meter	-11.7053
▁Site	-11.7053
Termination	-11.7055
DT	-11.7055
Triple	-11.706
▁SAX	-11.7063
▁Hadoop	-11.7063
▁ep	-11.7063
▁pause	-11.7065
27	-11.7066
Matched	-11.7067
Scopes	-11.7068
Levels	-11.7069
▁OS	-11.7071
49	-11.7072
YEAR	-11.7074
▁Elk	-11.7076
▁readBytes	-11.708
Orientation	-11.7081
▁CommerceOrder	-11.7082
Derived	-11.7083
InitParameter	-11.7086
▁btn	-11.7088
0000	-11.7091
ell	-11.7093
▁ActionEvent	-11.7094
Fs	-11.7096
▁ap	-11.7096
▁Generator	-11.7098
▁AV	-11.7099
▁pb	-11.71
DBCluster	-11.7102
RETURN	-11.7104
▁footer	-11.7104
▁rb	-11.7105
▁balance	-11.7105
ntk	-11.7106
Authority	-11.7107
CONTROL	-11.7108
params	-11.7109
▁DbSession	-11.711
Dirty	-11.7113
▁indicator	-11.7113
▁NORMAL	-11.7116
▁parameterType	-11.7117
Saved	-11.7119
ObjectName	-11.712
Inference	-11.712
▁tempFile	-11.7121
▁compatibility	-11.7122
▁ar	-11.7132
Deletion	-11.7135
ObjectType	-11.7136
Compressed	-11.7136
▁grow	-11.7137
▁dryRun	-11.7138
▁correlationId	-11.7141
Mapped	-11.7143
▁onComplete	-11.7144
ModelDao	-11.7144
Con	-11.7147
.\	-11.7147
▁Failed	-11.7151
Portlet	-11.7152
▁outgoing	-11.7154
▁clientResponse	-11.7156
86	-11.7159
BeforeCall	-11.7161
▁symbols	-11.7164
Couldn	-11.7166
▁linear	-11.7167
▁router	-11.7168
fix	-11.7171
▁classification	-11.7172
▁Doc	-11.7175
▁three	-11.7175
nc	-11.7176
ver	-11.7177
Prepare	-11.7177
▁Zip	-11.7179
▁getSignature	-11.7179
▁DeploymentUnit	-11.7183
UserSegmentEntry	-11.7185
▁beanManager	-11.7185
▁LDAP	-11.7187
Monitoring	-11.7188
▁EventType	-11.7189
ec	-11.719
IL	-11.7191
▁commerceAccount	-11.7193
Authenticated	-11.7193
▁overlay	-11.7195
96	-11.7198
AccessController	-11.7198
ring	-11.7198
▁IMAGE	-11.7202
▁getStorage	-11.7203
▁asnO	-11.7206
Concat	-11.7207
▁Each	-11.7209
▁RDF	-11.7211
▁watcher	-11.7212
RA	-11.7217
▁getF	-11.7218
Notifications	-11.7218
▁boot	-11.7219
▁getB	-11.722
▁nodeType	-11.7222
▁Append	-11.7223
AM	-11.7224
lab	-11.7225
▁Versioned	-11.7228
MimeType	-11.7229
▁pv	-11.723
izing	-11.7231
Sessions	-11.7232
▁band	-11.7233
Waiting	-11.7237
3"	-11.7238
Negative	-11.7238
▁respond	-11.7239
▁TokenType	-11.7242
▁GrayF	-11.7242
▁minor	-11.7245
▁cut	-11.725
template	-11.7251
▁Lightweight	-11.7252
▁NamingException	-11.7256
++	-11.7256
_1_1	-11.7259
CommandLine	-11.7259
▁rp	-11.7265
▁apiClient	-11.7267
▁computeIfAbsent	-11.7267
▁Ref	-11.7269
==	-11.7269
▁2.	-11.727
29	-11.7271
▁systemId	-11.7271
▁Finds	-11.7273
▁mirror	-11.7273
Disable	-11.7273
Datatype	-11.7276
3.	-11.7276
▁Cassandra	-11.7277
▁listen	-11.728
▁translated	-11.7282
While	-11.7283
cms	-11.7284
MXBean	-11.7288
register	-11.7289
▁Unchecked	-11.7291
▁19	-11.7291
▁objectType	-11.7291
ResourcePath	-11.7295
▁Install	-11.7295
MANAGER	-11.7296
equals	-11.7297
Gap	-11.73
ect	-11.73
▁getPrincipal	-11.7301
▁setLast	-11.7301
▁jaxb	-11.7305
PhoneNumber	-11.7312
ClassPath	-11.7312
LOCK	-11.7314
▁getFormat	-11.7315
▁Stats	-11.7315
▁constructors	-11.7318
SearchResult	-11.7325
08	-11.7327
▁">	-11.7329
▁probably	-11.7335
Enter	-11.7336
bean	-11.7337
RS	-11.734
▁pipelineName	-11.7347
▁Email	-11.7349
Offer	-11.7349
SCOPE	-11.7352
EQUAL	-11.7355
▁profiles	-11.7358
Ascii	-11.7358
Mention	-11.736
▁percent	-11.7362
▁GraphQL	-11.7363
Subscriptions	-11.7364
Compression	-11.7368
▁tool	-11.737
▁Jpa	-11.7372
Projects	-11.7373
.%	-11.7373
auto	-11.7375
ea	-11.7375
▁getFunction	-11.7377
Speed	-11.7379
Tmp	-11.738
jdbc	-11.7388
af	-11.7396
▁ODatabase	-11.7397
site	-11.7397
Percentage	-11.7398
LINK	-11.7399
▁getApp	-11.7403
Participant	-11.7403
▁highlight	-11.7406
43	-11.7407
▁Revision	-11.741
▁toPath	-11.7411
sm	-11.7415
▁setBody	-11.7415
▁XPath	-11.7416
▁stores	-11.7417
▁isDone	-11.742
▁ProcessInstance	-11.742
Tax	-11.7424
▁persisted	-11.7429
▁proper	-11.743
▁DOCUMENT	-11.743
Annotated	-11.7431
▁Required	-11.7432
▁toolbar	-11.7433
rm	-11.7433
InProgress	-11.7434
Acceptor	-11.7435
▁HttpSession	-11.7435
created	-11.7435
▁cacheEntry	-11.7439
▁getPrefix	-11.7439
Coordinator	-11.7442
▁JPA	-11.7443
mb	-11.7446
Generics	-11.7451
parameter	-11.7451
sResponse	-11.7455
▁transactionId	-11.7457
▁CommandContext	-11.7459
▁excludes	-11.7459
▁CompletionStage	-11.746
▁nonNull	-11.746
▁iso	-11.7463
▁frames	-11.7467
Uml	-11.7469
45	-11.7469
icon	-11.7472
▁keepStackSize	-11.7473
restoreStackSize	-11.7473
▁BorderLayout	-11.7473
▁da	-11.7476
▁accessible	-11.7476
▁writeBytes	-11.7477
ResourceInner	-11.7482
▁larger	-11.7483
▁ReflectionUtils	-11.7484
▁Save	-11.7486
▁getAvailable	-11.7488
▁atomic	-11.7492
dev	-11.7492
Expand	-11.7494
▁Since	-11.7496
Assets	-11.7498
▁getBounds	-11.7499
▁spliterator	-11.7499
names	-11.7499
Divider	-11.75
▁joined	-11.7502
▁nanos	-11.7503
▁perm	-11.7509
Integration	-11.751
▁Compare	-11.7511
Upper	-11.7511
ErrorHandler	-11.7511
ExceptionHandler	-11.7516
▁FILTER	-11.7519
commerce	-11.7523
▁tgt	-11.7524
prefix	-11.7524
Rollback	-11.7525
▁joining	-11.7527
other	-11.753
member	-11.7532
▁provides	-11.7533
▁tracer	-11.7533
▁GitLabApi	-11.7536
▁serializable	-11.7537
Precision	-11.754
Equivalent	-11.7542
▁privateKey	-11.7542
▁patient	-11.7542
▁keywords	-11.7543
▁Iterate	-11.755
▁AsyncCallback	-11.7553
▁Does	-11.7555
Checking	-11.7556
▁downstream	-11.7557
▁utf	-11.7557
▁Processor	-11.7558
▁Actor	-11.7561
ISO	-11.7564
Extras	-11.7565
▁monitoring	-11.7565
▁getAsync	-11.7571
Closing	-11.7574
▁getDisplayName	-11.7576
grpc	-11.7578
▁ChannelFuture	-11.7579
▁cpu	-11.7581
▁Assignment	-11.7581
▁Credential	-11.7582
Soft	-11.7583
Union	-11.7584
▁JComponent	-11.7586
▁HttpMethodName	-11.759
▁JMS	-11.759
▁CAP	-11.7593
ContentLength	-11.7594
Drag	-11.7596
▁rethrow	-11.76
TH	-11.7602
▁JAVA	-11.7603
07	-11.7603
58	-11.7604
▁circle	-11.7605
sync	-11.7606
▁taken	-11.7607
▁putLong	-11.7607
aw	-11.761
▁ask	-11.7611
▁MenuItem	-11.7613
▁TypeName	-11.7615
Linked	-11.7615
▁acceptLanguage	-11.7617
izable	-11.7617
▁Called	-11.7617
▁CHAR	-11.7618
Vault	-11.7623
Average	-11.7624
▁recipient	-11.7626
▁FINEST	-11.7626
▁loadBalancer	-11.7626
▁closest	-11.7627
SPACE	-11.7627
▁sa	-11.763
▁oauth	-11.7631
▁preview	-11.7634
▁corpus	-11.764
▁Or	-11.7641
▁Singleton	-11.7643
▁setWidth	-11.7643
▁inputFile	-11.7646
CacheKey	-11.7646
▁adaptor	-11.7648
▁getDevice	-11.7648
▁bool	-11.765
▁maxLength	-11.765
▁addOption	-11.7654
stats	-11.7654
username	-11.7655
▁ZonedDateTime	-11.7655
▁Streaming	-11.7656
▁Schedule	-11.7656
▁baseName	-11.7658
▁dirty	-11.7659
▁Cli	-11.7659
Recording	-11.7662
Atomic	-11.7663
▁appended	-11.7663
PropertyOf	-11.7664
▁std	-11.7667
ng	-11.767
▁PAGE	-11.767
▁setKey	-11.7671
▁numBytes	-11.7672
▁setSelected	-11.7673
Question	-11.7673
▁maxValue	-11.7676
36	-11.7677
tra	-11.7678
rt	-11.7683
▁sendError	-11.7683
▁constants	-11.7685
▁textField	-11.7685
46	-11.7686
En	-11.7689
▁ix	-11.769
login	-11.7692
:3:	-11.7693
▁"1"	-11.7693
Axiom	-11.7695
▁ba	-11.7696
▁DC	-11.7696
▁removing	-11.7698
sun	-11.7698
▁jmx	-11.7702
▁obs	-11.7702
Repositories	-11.7703
ToRemove	-11.7703
Parsed	-11.7704
Cat	-11.7705
ClassInfo	-11.771
▁ObjectNode	-11.7711
Ret	-11.7713
Prefixes	-11.7717
▁computeMessage	-11.7717
▁pref	-11.7718
ql	-11.772
▁aggregator	-11.772
options	-11.772
▁getExecution	-11.7723
Corner	-11.7723
Working	-11.7727
EventHandler	-11.7728
Toolbar	-11.773
▁inputType	-11.773
▁addOn	-11.773
ill	-11.7731
Srv	-11.7731
▁"^	-11.7732
▁Scriptable	-11.7733
▁delim	-11.7734
Atoms	-11.7735
Declared	-11.7736
▁heartbeat	-11.7736
XMLExtended	-11.7739
MediaType	-11.774
serviceName	-11.774
▁yaml	-11.7741
Hits	-11.7742
▁codePoint	-11.7742
▁colors	-11.7744
▁InputSource	-11.7745
Billing	-11.7745
OC	-11.7745
▁Apply	-11.7746
Clusters	-11.7746
▁popup	-11.7747
▁Flag	-11.7748
Small	-11.7748
▁fault	-11.7748
ToUse	-11.7752
05	-11.7757
▁cloned	-11.7758
▁attachments	-11.776
▁startPos	-11.776
ROLE	-11.7761
▁arc	-11.7762
▁containers	-11.7762
▁prefixes	-11.7766
▁far	-11.7767
▁dr	-11.7768
Successful	-11.7771
▁remoteAddress	-11.7772
Stored	-11.7773
▁front	-11.7774
▁Temporal	-11.7778
ti	-11.7781
Inter	-11.7785
▁ascending	-11.7787
_5	-11.7788
▁dummy	-11.7791
▁hl	-11.7792
▁cas	-11.7794
OfType	-11.7796
responses	-11.7797
Ignoring	-11.78
THAN	-11.78
▁endDate	-11.78
▁issuer	-11.7803
Io	-11.7806
Try	-11.7807
▁rather	-11.7807
Building	-11.7809
Converters	-11.7809
▁reconnect	-11.781
Emitter	-11.7814
TE	-11.7816
pi	-11.7817
LOCAL	-11.7819
PropertyType	-11.7819
▁setLayout	-11.7819
Individual	-11.782
▁Annotated	-11.782
mod	-11.7822
▁getBuffer	-11.7823
▁Current	-11.7824
StartIndex	-11.7826
pro	-11.7827
▁CF	-11.7828
Reverse	-11.7829
Stopped	-11.7834
Documents	-11.7836
ServiceClient	-11.7837
▁Commit	-11.7838
▁sField	-11.7839
mark	-11.7842
Bot	-11.7845
bind	-11.7846
Cnt	-11.7846
Naming	-11.7849
▁ti	-11.785
copy	-11.7853
▁CR	-11.7855
▁THIS	-11.7856
PropertyInfo	-11.7857
sListIndex	-11.7857
▁Scheduled	-11.7863
▁sn	-11.7864
show	-11.7866
pair	-11.7868
▁Joiner	-11.787
▁unused	-11.7872
Sep	-11.7874
wd	-11.7876
files	-11.7877
BigDecimal	-11.788
▁won	-11.788
OUTPUT	-11.788
85	-11.7881
▁alarm	-11.7882
lat	-11.7882
▁prompt	-11.7887
Minutes	-11.7887
▁logout	-11.7891
Graphics	-11.7894
▁Datatype	-11.7897
▁SYSTEM	-11.7897
▁enqueue	-11.7898
▁unsigned	-11.7898
bo	-11.7899
▁isSelected	-11.7899
▁Master	-11.79
▁getChildCount	-11.7901
▁JSType	-11.7902
PrivateKey	-11.7902
InstancesRequest	-11.7909
▁copyTo	-11.7911
▁evaluated	-11.7912
▁mbean	-11.7913
UT	-11.7917
▁Multimap	-11.7918
▁FAILED	-11.7919
▁Solution	-11.7919
Anonymous	-11.7925
Watermark	-11.7925
post	-11.7926
Shell	-11.7929
▁zipFile	-11.7935
▁who	-11.7935
DD	-11.7937
writer	-11.7938
Spans	-11.7939
son	-11.794
St	-11.7942
▁checkResult	-11.7942
▁basePath	-11.7943
lp	-11.7945
could	-11.7947
dt	-11.7948
▁transactions	-11.7949
▁setObject	-11.7951
▁participant	-11.7952
Keyspace	-11.7954
▁Either	-11.7956
Restart	-11.7957
EndDocument	-11.7957
://"	-11.7963
regorianCalendar	-11.7964
▁cv	-11.7966
Numbers	-11.7968
▁layers	-11.7969
▁getDb	-11.7971
66	-11.7972
▁consumed	-11.7976
▁Backup	-11.7976
▁JOptionPane	-11.7977
BLOCK	-11.7978
▁highest	-11.7978
▁FileStatus	-11.7979
▁tests	-11.7981
Conflict	-11.7985
▁InvalidKey	-11.7988
▁UnknownHost	-11.7992
▁Direct	-11.7993
tor	-11.7995
FLAG	-11.7997
change	-11.7998
▁Ws	-11.7998
od	-11.7998
IfNecessary	-11.7999
▁TASK	-11.7999
PrimitiveName	-11.8
SizeInBytes	-11.8
▁deletion	-11.8004
tmp	-11.8007
RO	-11.8007
▁(%	-11.8009
ssl	-11.801
ous	-11.8011
▁Measure	-11.8013
attr	-11.8016
▁Whether	-11.8017
Fetcher	-11.802
▁readUTF	-11.8023
Enumeration	-11.8024
▁Video	-11.8025
▁addition	-11.8025
▁IDs	-11.8028
▁solve	-11.803
Continue	-11.8033
▁Compound	-11.8036
▁NUMBER	-11.8037
RowIndex	-11.8037
Allocation	-11.8044
▁scaling	-11.8044
Rectangle	-11.8045
▁EFapsException	-11.8048
▁hard	-11.8051
▁CommercePrice	-11.8051
BACK	-11.8055
▁delivery	-11.8055
▁Typed	-11.8055
AP	-11.8055
▁artifacts	-11.8057
▁mf	-11.806
▁hints	-11.8067
▁queryBuilder	-11.8069
▁failures	-11.8071
▁getPackageName	-11.8075
Force	-11.8076
▁separated	-11.8077
▁putString	-11.8078
▁DBObject	-11.8082
gax	-11.8083
Under	-11.8084
Att	-11.8085
▁FLAG	-11.8085
Canvas	-11.8087
Boot	-11.8087
StreamWriter	-11.8091
ot	-11.8094
Slots	-11.8097
▁lists	-11.8097
▁deliver	-11.8099
▁prototype	-11.8099
▁trust	-11.8103
56	-11.8104
▁pu	-11.8105
MSG	-11.8109
▁createInstance	-11.8109
Fingerprint	-11.8111
▁ClassInfo	-11.8112
Square	-11.8112
▁SP	-11.8112
Slash	-11.8114
▁displayName	-11.8115
▁Resolve	-11.8115
Ancestor	-11.8118
{}	-11.812
▁getNodeType	-11.8123
▁Bound	-11.8123
▁warnings	-11.8123
Collections	-11.8124
Clone	-11.8126
▁Push	-11.8127
▁fi	-11.8128
Additional	-11.8129
▁EList	-11.8129
06	-11.8131
▁truncate	-11.8134
200	-11.8136
▁trade	-11.8137
▁JsonGenerator	-11.8137
Suite	-11.814
▁columnFamily	-11.814
▁xid	-11.8141
annotation	-11.8145
▁enumeration	-11.8145
Stroke	-11.8146
▁getAtom	-11.8147
▁Parsed	-11.8148
au	-11.8149
▁getJ	-11.815
STR	-11.8151
▁USE	-11.8153
▁RequestParam	-11.8154
Reading	-11.8158
CacheEntry	-11.8159
Excluded	-11.8161
▁And	-11.8161
Destroy	-11.8162
▁alternative	-11.8165
Machine	-11.8165
▁JOB	-11.8166
Oid	-11.8169
Weights	-11.8171
▁molecule	-11.8172
▁templateName	-11.8172
▁getCustom	-11.8172
▁Verify	-11.8176
▁Packet	-11.8176
RouteTable	-11.8177
▁threadPool	-11.818
top	-11.8183
UNIT	-11.8184
Splits	-11.8184
▁good	-11.8187
▁400	-11.8188
Too	-11.8188
▁getStringValue	-11.8188
▁inherited	-11.8191
▁intersect	-11.8191
MojoFailure	-11.8194
▁physical	-11.8196
PRIORITY	-11.8196
▁fromValue	-11.8198
Throw	-11.8198
▁trait	-11.8199
▁ir	-11.8203
▁directive	-11.8204
Bug	-11.8204
▁ping	-11.8204
▁Go	-11.8208
▁gp	-11.821
▁av	-11.8211
▁invoking	-11.8212
▁getSecond	-11.8221
▁Accept	-11.8221
▁scores	-11.8222
▁kryo	-11.8225
▁Failure	-11.8226
Repeat	-11.8227
Sending	-11.8227
Phone	-11.8229
Oracle	-11.823
Mesh	-11.8231
ActionListener	-11.8231
▁getFieldValue	-11.8232
▁MONTH	-11.8232
▁getDataType	-11.8233
AccountName	-11.8234
Dep	-11.8235
▁classInfo	-11.8235
Viewer	-11.8235
▁queryParam	-11.824
▁SELECT	-11.8244
54	-11.8246
Gauge	-11.8251
PART	-11.8252
▁getDefaultValue	-11.8253
▁rr	-11.8255
▁getUpdate	-11.8256
Ttl	-11.8258
▁face	-11.8259
90	-11.826
▁determined	-11.826
▁sz	-11.8261
cd	-11.8262
▁Marker	-11.8262
▁DBID	-11.8264
ServiceException	-11.8264
Solver	-11.8266
BB	-11.8267
SB	-11.8268
▁eventName	-11.8268
▁blk	-11.8268
▁streaming	-11.827
▁challenge	-11.827
LEFT	-11.8271
▁Invoke	-11.8273
▁alloc	-11.8277
▁coverage	-11.8278
▁jsonArray	-11.8278
Synchronization	-11.8278
▁Spatial	-11.828
▁HtmlTree	-11.8283
▁clustering	-11.8284
▁suite	-11.8285
▁getDelegate	-11.8286
▁vc	-11.8287
▁committed	-11.8289
▁getURL	-11.829
▁"&"	-11.8292
▁speed	-11.8297
▁Severity	-11.8301
▁getBy	-11.8302
▁Material	-11.8305
FROM	-11.8306
▁mixin	-11.8307
Quotes	-11.8307
▁Mapper	-11.8307
▁caseA	-11.8309
Interrupted	-11.8309
▁followed	-11.831
match	-11.8311
▁give	-11.8312
Concurrent	-11.8312
▁authenticated	-11.8317
Watch	-11.8318
48	-11.832
Exclusive	-11.832
▁Engine	-11.8321
DataStore	-11.8324
Hints	-11.8326
▁AUTO	-11.8326
PUT	-11.8328
▁blue	-11.8331
▁tracking	-11.8334
Snippet	-11.8335
AB	-11.8337
▁unchecked	-11.8338
ResourceId	-11.834
▁Undertow	-11.8342
Ports	-11.8343
▁Credentials	-11.8343
▁Concurrent	-11.8346
pattern	-11.8347
▁executeCreate	-11.8348
▁Contract	-11.8348
▁updating	-11.8348
▁rendered	-11.8349
▁intermediate	-11.8349
▁getShape	-11.8351
▁mult	-11.8352
Specified	-11.8352
▁writeBoolean	-11.8353
▁ai	-11.8354
EE	-11.8356
▁membership	-11.8357
▁localAddress	-11.8359
▁getArray	-11.836
TimeStamp	-11.8361
Datum	-11.8361
76	-11.8363
▁setOutput	-11.8364
▁DataInputStream	-11.8364
Relationships	-11.8368
▁Association	-11.837
Ident	-11.837
Statuses	-11.8371
Assistant	-11.8372
Merged	-11.8372
▁25	-11.8374
▁Bimserver	-11.8377
▁lc	-11.8381
AccessControl	-11.8382
▁applicationName	-11.8382
67	-11.8386
Minimum	-11.8387
▁caption	-11.8392
▁responseCode	-11.8393
▁hadoop	-11.8395
▁adjusted	-11.8397
▁terminated	-11.8399
Elasticsearch	-11.8403
Dict	-11.8403
▁3.	-11.8404
▁Complex	-11.8408
CR	-11.8409
cannot	-11.841
▁alluxio	-11.8411
Raster	-11.8411
▁sketch	-11.8411
▁Semantic	-11.8412
▁gs	-11.8415
▁ME	-11.8415
▁similar	-11.842
▁setInput	-11.8423
Div	-11.8424
▁getCommerce	-11.8426
Pod	-11.8427
▁lowerBound	-11.843
▁unmodifiable	-11.8431
▁aspect	-11.8431
▁recursively	-11.8434
iz	-11.8436
▁setLabel	-11.8436
War	-11.8438
HostName	-11.844
Inspector	-11.8441
Within	-11.8445
▁Collect	-11.8446
▁ScreenConstants	-11.8447
prop	-11.8449
Markup	-11.8452
ight	-11.8454
▁requestBody	-11.8455
Dispatch	-11.8455
▁utils	-11.8455
Exporter	-11.8461
▁getFull	-11.8462
ice	-11.8462
▁Formatter	-11.8463
▁getUserId	-11.8466
▁naming	-11.8466
ColumnNames	-11.8467
79	-11.8469
tools	-11.847
ServiceReference	-11.8471
▁subtype	-11.8479
ep	-11.8487
▁fileSystem	-11.8489
Guid	-11.849
Ordering	-11.849
Traversal	-11.8492
▁shipping	-11.8493
Diagram	-11.8495
document	-11.8497
media	-11.8497
▁logs	-11.85
▁strong	-11.85
DESCRIPTION	-11.8501
▁checker	-11.851
▁hive	-11.8512
▁conditional	-11.8512
▁am	-11.8512
Iterate	-11.8516
ToList	-11.8518
▁FIXME	-11.852
▁SINGLE	-11.852
rp	-11.852
▁DO	-11.8523
▁Disassociate	-11.8523
Spaces	-11.8524
sListValue	-11.8527
▁quick	-11.8529
LEN	-11.8531
▁INIT	-11.8534
button	-11.8536
97	-11.8537
▁SSLContext	-11.8537
▁getLock	-11.8539
Offering	-11.854
▁unsupported	-11.8542
Verifier	-11.8544
Wrong	-11.8544
ConfigFile	-11.8545
book	-11.8546
ClickListener	-11.8547
Inverse	-11.8547
▁upstream	-11.8548
way	-11.8548
▁Gateway	-11.8549
▁CONNECTION	-11.8549
▁Yaml	-11.8553
Proc	-11.8555
▁getDuration	-11.8556
▁pa	-11.8557
▁together	-11.8558
Probability	-11.8558
▁succeeded	-11.856
▁sct	-11.856
▁getParams	-11.8562
▁locks	-11.8562
ToAdd	-11.8565
dp	-11.8566
▁dbClient	-11.8567
▁typeElement	-11.8573
Severity	-11.8574
INTERNAL	-11.8579
▁intercept	-11.858
PrimaryKey	-11.858
▁PType	-11.8584
Subnet	-11.8584
▁detector	-11.859
Expanded	-11.8591
▁wm	-11.8593
▁levels	-11.8594
▁reshape	-11.8594
▁collected	-11.8599
directory	-11.86
RIGHT	-11.8602
▁ACTIVE	-11.8606
▁convertFromS	-11.8606
▁declaringClass	-11.8608
▁quoted	-11.8608
65	-11.8609
▁sortBy	-11.861
▁getExternal	-11.8611
Grouping	-11.8613
ViewHolder	-11.8614
▁Kafka	-11.8614
▁typeBuilder	-11.8616
ru	-11.8619
▁BYTES	-11.8619
▁inherit	-11.8621
ITEM	-11.8621
Devices	-11.8622
Customer	-11.8622
Cal	-11.8623
CacheManager	-11.8625
▁opened	-11.8627
▁bw	-11.8628
Highlight	-11.863
▁ones	-11.863
DC	-11.8633
▁MethodSpec	-11.8633
Provisioning	-11.8634
▁JavaClass	-11.8634
Large	-11.8635
▁occurrence	-11.8635
▁deactivate	-11.8636
▁Expected	-11.8637
ess	-11.8642
▁hasRemaining	-11.8643
▁undefined	-11.8643
▁Chart	-11.8644
69	-11.8645
example	-11.8647
tab	-11.8647
Inf	-11.8648
▁getLineNumber	-11.8649
▁Manager	-11.865
Framework	-11.865
Frames	-11.865
Reload	-11.865
▁mt	-11.865
▁Setting	-11.8651
▁readFrom	-11.8656
Pro	-11.866
ise	-11.8662
QueryString	-11.8662
Pay	-11.8663
▁solver	-11.8663
▁Obtain	-11.8663
);\	-11.8663
▁ByteOrder	-11.8665
▁bd	-11.8669
CALL	-11.8669
Calculator	-11.8671
pa	-11.8677
VO	-11.8679
▁examples	-11.868
▁soft	-11.8682
▁setLocation	-11.8682
Sizes	-11.8684
▁TIMESTAMP	-11.8684
▁TARGET	-11.8692
Overflow	-11.8693
▁isAttribute	-11.8694
▁replaceFirst	-11.8694
▁thenApply	-11.8694
Persister	-11.8695
▁Msg	-11.8701
▁identified	-11.8702
▁curve	-11.8703
▁namespaceURI	-11.8704
▁18	-11.8704
cf	-11.8708
▁works	-11.871
▁orderId	-11.871
68	-11.8711
▁Tokens	-11.8711
zip	-11.8712
1,	-11.8715
▁Jmx	-11.8717
Spi	-11.872
Maps	-11.872
insert	-11.8722
old	-11.8723
▁Scanner	-11.8724
email	-11.8724
Distinct	-11.8728
▁radix	-11.8728
RESULT	-11.873
▁af	-11.873
cat	-11.8732
CHECK	-11.8733
UserAgent	-11.8734
▁timezone	-11.8737
▁extras	-11.8738
▁currentIndex	-11.8742
PASSWORD	-11.8743
▁higher	-11.8744
qui	-11.8746
▁Count	-11.8746
▁PropertyType	-11.8746
▁toURL	-11.8746
▁descriptors	-11.8749
android	-11.8751
▁Selection	-11.8752
ach	-11.8754
BoundingBox	-11.8756
NAMES	-11.8756
▁nor	-11.8758
Installation	-11.8761
Drawer	-11.8762
▁INPUT	-11.8762
enabled	-11.8762
▁zoneId	-11.8764
Cells	-11.8766
side	-11.8767
Training	-11.8772
▁Algorithm	-11.8773
▁past	-11.8773
▁parentId	-11.8778
98	-11.8779
Ldap	-11.8779
▁book	-11.878
▁routes	-11.8785
Toggle	-11.8785
▁company	-11.8785
▁dm	-11.8788
mem	-11.8792
▁divisor	-11.8793
NotSupported	-11.8793
PE	-11.8793
▁vs	-11.8795
ner	-11.8797
bb	-11.88
where	-11.8801
double	-11.8801
▁getArtifact	-11.8802
▁PropertyKey	-11.8802
▁dlp	-11.8804
▁PathVariable	-11.8805
Physical	-11.8805
▁Peer	-11.8805
SocketFactory	-11.8806
▁WebApp	-11.8806
word	-11.8809
▁sh	-11.8812
▁Shared	-11.8813
▁applicable	-11.8814
OrderBy	-11.8815
ACTIVE	-11.8816
▁interpreter	-11.8817
▁Configurable	-11.8819
88	-11.8821
Pull	-11.8821
BitSet	-11.8822
IpAddress	-11.8823
▁axiom	-11.8826
3_	-11.8827
▁vision	-11.8828
▁Compiler	-11.883
Submit	-11.8831
ThreadLocal	-11.8831
▁TCP	-11.8836
▁Parallel	-11.8839
▁cond	-11.8841
▁setImage	-11.8841
MENT	-11.8843
InputFormat	-11.8844
Propagation	-11.8845
Invoice	-11.8846
Coding	-11.885
▁parallelism	-11.885
Scaling	-11.8851
▁overrides	-11.8851
▁setLong	-11.8854
▁ContentType	-11.8855
▁concrete	-11.8857
▁enforce	-11.8858
▁isSuccess	-11.8859
scope	-11.886
57	-11.886
▁dn	-11.8865
▁SystemException	-11.8866
▁Delegate	-11.8867
Anno	-11.8867
Guard	-11.8867
InSeconds	-11.8868
='"	-11.8869
pp	-11.8871
▁chained	-11.8871
Cfg	-11.8872
▁severe	-11.8872
ITY	-11.8873
▁inbound	-11.8874
TITLE	-11.8874
▁separate	-11.888
Ui	-11.888
ForType	-11.8882
▁atomContainer	-11.8884
sToRemove	-11.8886
Adapters	-11.8887
▁xy	-11.8889
▁Interface	-11.8895
▁Envelope	-11.8896
▁backing	-11.8902
▁authorizations	-11.8907
place	-11.8909
▁exiting	-11.8909
Dn	-11.8909
▁getProfile	-11.891
ua	-11.891
▁queued	-11.891
▁Twitter	-11.8911
localhost	-11.8911
▁manage	-11.8914
SM	-11.8915
IllegalArgument	-11.8917
▁modifications	-11.8917
sByTagName	-11.8917
amp	-11.8918
OptionRel	-11.8919
▁KNX	-11.892
▁getForm	-11.892
▁Login	-11.892
▁instanceValue	-11.8922
driver	-11.8922
Book	-11.8922
Latency	-11.8923
44	-11.8925
Exceptionally	-11.8928
InfoList	-11.8928
▁identifiers	-11.8931
dim	-11.8933
are	-11.8935
▁internalRequest	-11.8936
▁wave	-11.8938
LineNumber	-11.8939
▁cacheManager	-11.8941
▁setResponse	-11.8942
CheckReturnValue	-11.8943
▁webApp	-11.8944
factory	-11.8948
FromCache	-11.8948
▁getPropertyName	-11.8949
▁SKIP	-11.8951
Typed	-11.8952
deprecation	-11.8955
▁guard	-11.8956
▁fieldNames	-11.8957
▁subsequent	-11.8959
▁setIcon	-11.896
▁addon	-11.8961
//	-11.8969
Legacy	-11.8969
keys	-11.8971
▁deserializer	-11.8971
Buff	-11.8971
Diagnostic	-11.8972
▁getSettings	-11.8972
▁StringReader	-11.8972
▁notEmpty	-11.8973
▁mechanism	-11.8974
Distributed	-11.8976
account	-11.8979
▁handles	-11.8981
▁usually	-11.8981
custom	-11.8982
▁factories	-11.8983
▁getWindow	-11.8984
NotEmpty	-11.8986
ONE	-11.8988
▁rd	-11.8988
Secondary	-11.899
FromFile	-11.899
▁getFullName	-11.8991
classes	-11.8992
Seen	-11.8992
▁Ad	-11.8995
▁FileWriter	-11.8998
Interaction	-11.8999
Examples	-11.9
DateFormat	-11.9001
Git	-11.9002
▁NON	-11.9005
UserName	-11.9005
Nonce	-11.9006
▁NoSuchField	-11.9008
DataOutputStream	-11.9008
▁HttpServer	-11.9012
▁setParam	-11.9015
▁BLOCK	-11.9016
▁caching	-11.9018
▁much	-11.902
▁lastIndex	-11.902
▁LAST	-11.9022
▁MODE	-11.9023
▁xa	-11.9029
▁getSearch	-11.903
▁printed	-11.903
▁Safe	-11.9031
Reflection	-11.9032
Protection	-11.9033
ade	-11.9033
▁getOrDefault	-11.9037
▁expectedType	-11.9038
▁setContentView	-11.9038
NAMESPACE	-11.9039
▁appear	-11.9039
▁mm	-11.9039
▁outputDir	-11.904
CF	-11.9041
exp	-11.9041
▁Se	-11.9047
:1:	-11.905
Recursively	-11.9051
AccessException	-11.9051
▁"{"	-11.9052
RPC	-11.9052
▁TextUtils	-11.9053
▁getRegion	-11.9056
Temporary	-11.9058
Listing	-11.9061
▁displayed	-11.9065
WEB	-11.9067
LOAD	-11.907
▁Projection	-11.907
UniqueId	-11.9071
getDeclaredField	-11.9072
▁javaType	-11.9072
export	-11.9074
^	-11.9079
SPECIFIC	-11.9084
▁newline	-11.9084
Identification	-11.9085
Namespaces	-11.9088
▁addHandler	-11.9088
▁processors	-11.9088
ACL	-11.9089
SS	-11.909
Pause	-11.909
▁Attr	-11.9091
ByResourceGroup	-11.9093
▁fm	-11.9094
her	-11.9094
Hours	-11.9094
DeclaredFields	-11.9095
PROJECT	-11.9096
QName	-11.9097
▁Completion	-11.9098
We	-11.91
▁Stat	-11.9103
SyntaxException	-11.9104
namespace	-11.9106
▁Terminal	-11.9107
▁JMX	-11.9107
▁IBond	-11.9107
▁verification	-11.9107
Signer	-11.9108
JobRequest	-11.911
▁Jenkins	-11.9111
Pojo	-11.9112
▁relevant	-11.9114
Workers	-11.9115
commit	-11.9118
▁OnClickListener	-11.9118
ComboBox	-11.912
▁dbName	-11.9123
▁Ion	-11.9124
▁getInterfaces	-11.9126
Ann	-11.9126
▁getNodeValue	-11.9127
Invalidation	-11.9129
▁notifications	-11.9131
▁prepend	-11.9131
Phrase	-11.9131
▁Bug	-11.9132
▁Hibernate	-11.9132
Lang	-11.9136
RequestId	-11.9136
▁consistent	-11.9141
▁Connect	-11.9141
Occurrence	-11.9142
▁ser	-11.9143
77	-11.9146
▁srv	-11.9146
▁getColumnName	-11.9146
ash	-11.9148
▁team	-11.9148
Formats	-11.9149
▁criterion	-11.915
▁Decimal	-11.9151
RM	-11.9155
XM	-11.9156
TimeUnit	-11.9156
Mismatch	-11.9162
device	-11.9163
Transactions	-11.9167
OptionValueRel	-11.9167
▁{\	-11.9168
▁Disable	-11.9171
▁newHashMap	-11.9172
Challenge	-11.9174
▁Co	-11.9175
▁errorMsg	-11.9177
▁square	-11.9177
▁instructions	-11.9177
▁timed	-11.9178
Logic	-11.918
▁unsubscribe	-11.9182
▁setVersion	-11.9184
▁Download	-11.9186
QueryParams	-11.9186
ListItem	-11.919
▁writeShort	-11.9191
ist	-11.9193
▁ft	-11.9193
▁creates	-11.9193
▁reasons	-11.9193
plain	-11.9194
cing	-11.9195
fr	-11.9195
_0_0	-11.9195
▁getTo	-11.9196
display	-11.9197
▁interaction	-11.9198
▁getDataSource	-11.9203
FormalParameter	-11.9204
ManagedObject	-11.9206
RANGE	-11.9209
▁transactional	-11.921
▁readResource	-11.9212
LastModified	-11.9213
StringBuilder	-11.9213
▁MATCH	-11.9213
IMAGE	-11.9216
▁AtomicLong	-11.9216
Gene	-11.9216
ni	-11.9218
▁white	-11.9219
REFERENCE	-11.922
▁pager	-11.9224
001	-11.9226
▁UTC	-11.9227
▁JAR	-11.9229
▁responseBody	-11.9231
▁getTimeZone	-11.9231
87	-11.9234
Summaries	-11.9234
Subset	-11.9234
▁crypto	-11.9235
▁filled	-11.9236
CheckBox	-11.9236
Installed	-11.9237
▁toggle	-11.9238
▁inode	-11.9239
Latest	-11.924
▁neighbor	-11.9241
BackgroundColor	-11.9242
▁simpleName	-11.9247
▁Branch	-11.9249
▁tcp	-11.9251
▁Attach	-11.9254
AsLong	-11.9255
▁ProcessEngine	-11.9258
join	-11.9258
▁getActualType	-11.9262
CT	-11.9263
Arrays	-11.9263
DEFINITION	-11.9264
▁isRunning	-11.9267
▁invoker	-11.9269
▁sequences	-11.927
38	-11.9273
Acc	-11.9275
▁billingAccount	-11.9277
▁CLOSE	-11.9278
▁presenter	-11.9279
identifier	-11.9284
▁getOrigin	-11.9284
▁design	-11.9286
DayOfWeek	-11.9287
▁Decision	-11.9293
▁FileReader	-11.9294
CONSTRAINT	-11.9294
▁ModelAndView	-11.9294
▁constructed	-11.9295
▁THE	-11.9295
▁asText	-11.9295
▁getProp	-11.9296
▁Icon	-11.9297
▁certain	-11.9298
RGB	-11.9299
▁frequency	-11.9301
ens	-11.9301
Replica	-11.9302
▁Visitor	-11.9305
man	-11.9305
▁Grammar	-11.9305
Lease	-11.9305
IVE	-11.9306
▁hits	-11.9308
▁le	-11.9316
▁JavaScript	-11.9318
Warnings	-11.9319
▁Mozu	-11.9321
_0=	-11.9321
▁kam	-11.9321
▁DE	-11.9321
▁cloudFoundry	-11.9325
ApiKey	-11.9326
▁superType	-11.9327
▁endPoint	-11.9328
▁appendTo	-11.933
▁Conversation	-11.933
LAST	-11.9331
▁randomUUID	-11.9334
PARAMETERS	-11.9335
▁identify	-11.9335
▁projectIdOr	-11.9335
Most	-11.9338
▁plural	-11.9338
Shader	-11.934
▁bundles	-11.9345
▁stamp	-11.9345
ry	-11.9347
▁dstIndex	-11.9349
▁ModelType	-11.9352
▁ne	-11.9353
▁getCell	-11.9356
▁commandExecutor	-11.9358
AD	-11.9359
Amp	-11.9364
▁mo	-11.9365
▁paging	-11.9365
▁Some	-11.9366
VersionRequest	-11.9366
Keep	-11.9366
▁Dictionary	-11.9368
EntityId	-11.9369
▁Appendable	-11.937
▁jcr	-11.937
▁chosen	-11.937
▁LocalTime	-11.9371
▁404	-11.9372
EXTENSION	-11.9372
Crawler	-11.9373
▁grouped	-11.9374
▁isNew	-11.9374
TypeId	-11.9374
▁getPriority	-11.9374
Letter	-11.9375
EJB	-11.9376
▁im	-11.9377
▁createStatement	-11.9377
Allocator	-11.9382
▁anim	-11.9382
▁FINDER	-11.9383
89	-11.9383
▁likely	-11.9385
Dev	-11.9388
▁asType	-11.9389
Budget	-11.939
Conditional	-11.9391
▁Setup	-11.9392
▁isStartOf	-11.9392
ResponseInner	-11.9395
▁violation	-11.9395
cap	-11.9396
▁MeasureSpec	-11.9396
Launcher	-11.9396
Feedback	-11.9397
▁Drools	-11.9398
▁getenv	-11.9398
MeasureSpec	-11.94
▁sibling	-11.94
Mandatory	-11.9401
ParamName	-11.9401
Sibling	-11.9402
▁servletRequest	-11.9407
▁getElements	-11.9407
ChangeLog	-11.9409
singComponent	-11.9411
▁markup	-11.9415
DefaultValue	-11.9415
▁sl	-11.9419
5"	-11.942
window	-11.9422
▁STATIC	-11.9423
▁converters	-11.9424
UL	-11.9426
Way	-11.9427
\">"	-11.9427
▁moved	-11.9428
protocol	-11.943
▁nl	-11.9431
TaxFixedRate	-11.9431
▁DMN	-11.9435
▁Triple	-11.9437
DESC	-11.9439
▁InvalidArgument	-11.944
▁FHIR	-11.944
▁COMMA	-11.9444
▁SortedMap	-11.9449
▁animate	-11.9449
▁Usage	-11.945
Agg	-11.9454
▁ServiceContext	-11.9456
▁newHashSet	-11.946
▁ArrayUtils	-11.9461
ignore	-11.9462
bs	-11.9467
css	-11.9467
Alternative	-11.9471
TR	-11.9472
▁webSocket	-11.9473
Issues	-11.9475
ParsingException	-11.9476
Trust	-11.9477
▁getJSONObject	-11.9477
▁FORMAT	-11.9478
▁Mutation	-11.9482
OnError	-11.9484
haredPreferences	-11.9485
FOLDER	-11.9485
Semantic	-11.9488
Correct	-11.9488
LeafNode	-11.9489
USE	-11.949
▁intern	-11.9492
▁{}."	-11.9492
▁getPattern	-11.9493
EventDefinition	-11.9502
▁Histogram	-11.9503
ToCheck	-11.9504
▁Env	-11.9505
den	-11.9507
▁IGNORE	-11.9508
▁De	-11.951
ResourceName	-11.951
▁Backend	-11.9511
▁Define	-11.9511
Bi	-11.9512
▁Info	-11.9514
▁spans	-11.9514
▁createDefault	-11.9515
Schemas	-11.9515
▁la	-11.9515
▁Ssh	-11.9517
temp	-11.9518
▁SEPARATOR	-11.9518
▁createResource	-11.952
▁magic	-11.9522
Presenter	-11.9524
ERR	-11.9525
▁affected	-11.9527
CommerceDiscount	-11.9529
specific	-11.9529
utf	-11.9529
▁FieldType	-11.953
OPEN	-11.9532
▁minValue	-11.9533
▁JspException	-11.9535
▁workUnit	-11.9536
ASCII	-11.9537
▁ignoring	-11.9539
Vendor	-11.9539
Kill	-11.954
Removal	-11.9541
▁bufferIndex	-11.9541
tl	-11.9542
▁SVG	-11.9543
Authorizer	-11.9544
▁integration	-11.9544
▁beanFactory	-11.9544
Jwt	-11.9546
▁columnLabel	-11.9548
Actionable	-11.9548
▁pathTo	-11.9548
ick	-11.9552
▁publication	-11.9553
ho	-11.9554
Windows	-11.9554
▁Alert	-11.9554
Attempts	-11.956
▁Show	-11.9562
Requirements	-11.9564
▁doing	-11.9565
▁OCommand	-11.9569
▁objectOutput	-11.957
▁combination	-11.957
▁styleClass	-11.9571
▁why	-11.9572
Retries	-11.9572
monitor	-11.9572
▁Aggregate	-11.9573
▁pg	-11.9573
CLOSE	-11.9573
▁getTree	-11.9574
▁classPath	-11.9575
Abs	-11.9577
▁ending	-11.9579
MAPPar	-11.9582
Convention	-11.9586
▁admanager	-11.9586
▁Valid	-11.9588
ConfigurationSet	-11.9588
▁APP	-11.9588
Trades	-11.9594
Layers	-11.9595
▁polling	-11.9595
UB	-11.9595
▁dataSize	-11.9598
MT	-11.9598
▁FINER	-11.9598
▁getTransport	-11.9598
▁scaled	-11.9598
ConfigBean	-11.9601
SL	-11.9602
Corpus	-11.9602
▁Tenant	-11.9602
Checkout	-11.9602
▁tran	-11.9603
▁shown	-11.9603
▁ConcurrentHash	-11.9604
GenericType	-11.9605
ElementType	-11.9605
▁getPipeline	-11.9607
▁mAdapter	-11.9608
▁tell	-11.9609
▁probability	-11.961
finderCache	-11.9613
General	-11.9617
▁Provides	-11.9617
Clean	-11.9619
▁SHA	-11.9621
▁Multiple	-11.9622
kit	-11.9623
▁RuntimeFault	-11.9626
▁flatten	-11.963
du	-11.9631
▁PathElement	-11.9632
NextToken	-11.9635
omputeStringSize	-11.9637
OM	-11.9639
Persist	-11.9639
Discriminator	-11.9641
rest	-11.9643
▁readFully	-11.9643
▁fingerprint	-11.9645
Customization	-11.9649
▁lowest	-11.9649
▁jgen	-11.965
▁FULL	-11.965
▁objectId	-11.9652
▁entering	-11.9652
▁todo	-11.9653
▁imageType	-11.9656
▁newState	-11.9659
▁functionName	-11.9661
ResourceBundle	-11.9661
▁devices	-11.9665
MARK	-11.9665
AlreadyExists	-11.9667
▁validated	-11.9667
▁lineSeparator	-11.9668
▁jsonWriter	-11.9671
NEW	-11.9671
ValueType	-11.9671
Entitlement	-11.9672
▁dates	-11.9673
panel	-11.9673
Protocols	-11.9673
ang	-11.9676
▁ParserException	-11.9677
▁nd	-11.9677
ai	-11.9678
▁bt	-11.9678
▁Ast	-11.9678
▁queryResult	-11.9679
▁closeable	-11.9679
see	-11.968
Routes	-11.9681
Cur	-11.9681
Includes	-11.9683
▁getLink	-11.9685
MethodCall	-11.9686
:6	-11.9687
TransactionId	-11.969
Abort	-11.9691
▁WARN	-11.9691
▁floatValue	-11.9691
▁Scale	-11.9695
Tracing	-11.9696
::	-11.9697
CB	-11.9697
▁replay	-11.9697
▁confirm	-11.9699
▁Ensure	-11.97
▁getMethodName	-11.9702
▁predicates	-11.9702
▁VIEW	-11.9702
menu	-11.9704
▁setError	-11.9707
MA	-11.971
▁benchmark	-11.9713
▁"${	-11.9714
▁Csv	-11.9719
▁Builds	-11.9719
8601	-11.972
▁fetched	-11.9723
▁Max	-11.9726
▁asynchronous	-11.9728
▁health	-11.9728
FAILURE	-11.9728
BigInteger	-11.9728
thread	-11.9728
▁nt	-11.973
BatchSize	-11.973
▁suspend	-11.9732
84	-11.9735
▁orElseThrow	-11.9735
TARGET	-11.9736
▁deviceName	-11.9736
JOB	-11.9736
▁inf	-11.9736
^=	-11.9741
ct	-11.9741
▁setVariable	-11.9741
Poll	-11.9742
Norm	-11.9742
▁visitInsn	-11.9744
▁wish	-11.9744
hi	-11.9745
▁getTest	-11.9746
▁startPosition	-11.9747
▁fileId	-11.9749
▁newChild	-11.9749
▁URLEncoder	-11.9751
OnMissingBean	-11.9753
SQLException	-11.9755
EndPoint	-11.9756
39	-11.9756
Minus	-11.9758
QueryResult	-11.976
▁oos	-11.9761
▁getD	-11.9761
Escaped	-11.9762
▁retValue	-11.9764
DEF	-11.9764
▁optimize	-11.9764
▁parserContext	-11.9766
BIT	-11.9768
Activities	-11.977
▁assignments	-11.977
RULE	-11.9773
StatusRequest	-11.9777
▁EOFException	-11.9777
▁getOperator	-11.9779
Star	-11.9779
progressListener	-11.978
▁Datastore	-11.9781
▁LT	-11.9781
Certificates	-11.9783
▁lease	-11.9784
StatusCode	-11.9785
▁anyMatch	-11.9786
Queued	-11.9786
req	-11.9792
▁nz	-11.9792
ier	-11.9793
▁putExtra	-11.9793
▁getAccount	-11.9794
▁However	-11.9799
mapping	-11.9799
▁subscriptions	-11.98
▁dos	-11.98
LocalName	-11.98
Csv	-11.98
Compliance	-11.9807
▁asMap	-11.981
▁ResourceType	-11.9811
GroupRequest	-11.9813
Interpolator	-11.9815
▁nearest	-11.9815
operation	-11.9815
eclipse	-11.9816
▁getTop	-11.9818
▁spring	-11.9818
▁BiConsumer	-11.9823
MetaInfo	-11.9824
ative	-11.9824
SafeVarargs	-11.9825
▁qr	-11.9827
Readable	-11.983
▁PRE	-11.9831
sAnd	-11.9832
Have	-11.9834
▁Follow	-11.9835
▁Contact	-11.9837
▁rslt	-11.984
OutputFormat	-11.9841
Dst	-11.9844
EndOf	-11.9844
▁vpn	-11.9846
▁plot	-11.9846
StateChange	-11.9847
ObjectProperty	-11.985
▁BIG	-11.9851
▁sdk	-11.9852
}\	-11.9852
▁mCurrent	-11.9852
▁rewind	-11.9855
FactHandle	-11.9861
fields	-11.9861
▁Seq	-11.9862
▁MethodNode	-11.9864
Rep	-11.9865
gi	-11.9865
Unchecked	-11.9865
Stride	-11.9868
▁Inject	-11.9869
▁setResource	-11.987
▁checkPermission	-11.9871
▁RESPONSE	-11.9872
plan	-11.9872
▁getInfo	-11.9874
▁rowCount	-11.9875
▁readFile	-11.9877
▁PREFIX	-11.9878
MODIFIED	-11.9879
TextView	-11.9879
SYSTEM	-11.988
▁ph	-11.9882
▁overlap	-11.9883
▁typeInfo	-11.9884
▁invoice	-11.9884
CONNECTION	-11.9885
Relations	-11.9887
▁CURRENT	-11.9888
CHANNEL	-11.9888
*"	-11.9889
Tran	-11.9889
▁inter	-11.989
0"	-11.9892
CSV	-11.9893
gt	-11.9893
hy	-11.9895
IdentityProvider	-11.9897
Prob	-11.99
▁months	-11.9901
▁velocity	-11.9902
▁cusparse	-11.9903
▁Injector	-11.9904
super	-11.9905
▁JAXB	-11.9906
▁setEntity	-11.9911
▁ADDRESS	-11.9911
Red	-11.9913
Extent	-11.9913
Cl	-11.9916
▁NameValuePair	-11.9917
BITS	-11.9919
Compute	-11.992
StoreException	-11.992
▁Full	-11.9921
▁Out	-11.9922
▁DataBuffer	-11.9922
Extract	-11.9923
▁componentName	-11.9924
▁From	-11.9925
Dis	-11.9926
ChildNode	-11.9927
▁getMain	-11.9928
▁Numeric	-11.9929
Interpreter	-11.9929
▁JDK	-11.9931
▁drawer	-11.9932
▁ports	-11.9932
arr	-11.9937
FUNCTION	-11.9937
Ljava	-11.9937
DEBUG	-11.9937
▁Customer	-11.994
sign	-11.9941
▁KeyEvent	-11.9944
non	-11.9944
▁"<"	-11.9946
▁grouping	-11.9947
ga	-11.9951
▁light	-11.9951
CD	-11.9952
Probe	-11.9952
▁Wait	-11.9956
▁removal	-11.9958
Sparse	-11.9958
▁automation	-11.9963
▁Audio	-11.9963
InstanceRequest	-11.9963
▁preserve	-11.9965
▁Monitor	-11.9969
▁ClientResponse	-11.9971
▁OperationStatus	-11.9974
dv	-11.9974
EX	-11.9977
Then	-11.9978
yyyy	-11.9979
Circle	-11.9981
▁HttpEntity	-11.9981
▁setBackground	-11.9981
Skipping	-11.9983
POLICY	-11.9984
settings	-11.9984
light	-11.9984
expected	-11.9985
Maven	-11.9986
▁moveTo	-11.9989
javax	-11.999
▁StageException	-11.999
ks	-11.9991
KeepAlive	-11.9992
FileEntry	-11.9993
Longitude	-11.9994
▁Values	-11.9994
ev	-11.9997
▁Indexable	-11.9999
▁LENGTH	-12
▁Screen	-12.0003
CDATA	-12.0003
Logical	-12.0005
▁History	-12.0006
▁Rect	-12.0006
term	-12.0007
Velocity	-12.0007
Cookies	-12.001
Keystore	-12.001
▁Deletes	-12.001
SecurityContext	-12.0011
TxId	-12.0012
▁isEqualTo	-12.0012
▁become	-12.0016
▁assumed	-12.002
▁percentage	-12.0024
Scene	-12.0025
▁getUserName	-12.0028
ValidationResult	-12.0029
DRL	-12.0029
Compile	-12.0031
▁Spliterator	-12.0032
▁NF	-12.0033
Given	-12.0035
Wrapped	-12.0037
Trim	-12.0038
59	-12.004
▁testing	-12.0041
flags	-12.0042
RT	-12.0043
INPUT	-12.0044
▁bounding	-12.0045
▁Distributed	-12.0045
▁deal	-12.0046
▁"@"	-12.0046
▁clusterId	-12.0047
Protected	-12.0048
Mechanism	-12.005
▁getThread	-12.0052
▁TOP	-12.0053
Logout	-12.0053
▁belong	-12.0055
NA	-12.0055
Superclass	-12.0055
▁Body	-12.0056
language	-12.006
edge	-12.006
▁testClass	-12.0061
nodes	-12.0063
▁Capability	-12.0063
▁occurrences	-12.0063
▁dl	-12.0065
▁iterations	-12.0068
▁getOption	-12.0071
▁localized	-12.0072
PS	-12.0074
ResourceType	-12.0076
▁Unsafe	-12.0078
▁fhir	-12.0078
▁commerceCountry	-12.0078
▁Organization	-12.0084
RES	-12.0085
VarName	-12.0087
▁Journal	-12.0087
database	-12.0087
▁getDialog	-12.0089
PACKAGE	-12.009
URE	-12.0093
▁paragraph	-12.0098
trace	-12.0102
▁getNative	-12.0102
common	-12.0102
Adjustment	-12.0103
▁sel	-12.0104
▁he	-12.0105
▁Offset	-12.0106
▁newArray	-12.0106
▁gene	-12.0111
▁processEngine	-12.0111
Expectation	-12.0111
isEventEnabled	-12.0117
▁quantity	-12.0119
▁logLevel	-12.0119
BeanName	-12.012
Redis	-12.012
▁fl	-12.0124
▁violations	-12.0125
Revisions	-12.0127
rows	-12.0127
Else	-12.0128
▁drain	-12.0128
▁acceptor	-12.0128
▁phone	-12.0129
Expire	-12.0129
Assignments	-12.0129
▁Guice	-12.013
Via	-12.013
▁RFC	-12.0131
▁recyclerView	-12.0132
▁makes	-12.0132
($	-12.0132
▁Spec	-12.0134
IfNotNull	-12.0136
▁openSession	-12.0137
▁Loads	-12.0137
▁toReturn	-12.0138
▁Arithmetic	-12.0138
edBy	-12.0145
Article	-12.0147
▁lab	-12.0148
bits	-12.0151
DI	-12.0151
▁Str	-12.0151
▁setStart	-12.0152
▁getMembers	-12.0156
▁fireEvent	-12.0157
▁drag	-12.016
RI	-12.0161
▁LineString	-12.0162
Serialized	-12.0164
▁rx	-12.0167
Skill	-12.0171
▁hasDefined	-12.0172
DDRM	-12.0172
Detected	-12.0172
▁Raft	-12.0172
42	-12.0172
▁AWS	-12.0172
▁Fixed	-12.0173
AO	-12.0175
▁getVariables	-12.0178
▁Feed	-12.018
og	-12.0182
Dashboard	-12.0184
Associated	-12.0186
ToMap	-12.0186
▁Configure	-12.0188
▁workspaceName	-12.019
Predicates	-12.0191
PM	-12.0194
▁isConnected	-12.0195
Viewport	-12.0199
Docker	-12.02
▁ServerException	-12.0201
▁EEnum	-12.0201
▁ic	-12.0203
QueueEntry	-12.0204
Agreement	-12.0205
▁getDeployment	-12.0207
ProcessEngine	-12.0208
▁article	-12.0208
Called	-12.0212
▁aggregated	-12.0212
Transient	-12.0215
rc	-12.0215
▁tuples	-12.0215
▁guaranteed	-12.0216
responseFields	-12.0217
LogFile	-12.0218
AndGet	-12.0218
ToIndex	-12.0219
▁DecimalFormat	-12.022
():	-12.022
GE	-12.0221
final	-12.0224
▁KEYS	-12.0225
UNKNOWN	-12.0226
DISPLAY	-12.0226
Jsp	-12.0226
Inside	-12.0226
▁messaging	-12.0227
▁Jcr	-12.0227
FETCH	-12.023
Sp	-12.023
▁entityName	-12.023
▁MP	-12.023
▁located	-12.0231
▁notifier	-12.0231
▁sensor	-12.0232
▁logMessage	-12.0232
Compact	-12.0235
ADE	-12.0237
▁viewName	-12.0237
▁getAccess	-12.0237
▁parentPath	-12.0241
▁secretKey	-12.0243
df	-12.0247
▁clientConfig	-12.0248
rel	-12.0249
▁qualifiers	-12.025
▁getFactory	-12.0252
Hostname	-12.0252
▁startActivity	-12.0252
▁thing	-12.0254
▁placement	-12.0257
▁getSingle	-12.026
▁resolveModel	-12.0261
Stylesheet	-12.0262
▁allocator	-12.0263
EMPTY	-12.0267
▁serve	-12.0268
plus	-12.0269
Degree	-12.027
__0	-12.0271
▁prefetch	-12.0272
▁Jackson	-12.0277
Benchmark	-12.0277
▁AT	-12.0277
▁removeAttribute	-12.0279
▁topologyId	-12.028
▁DOT	-12.028
▁prob	-12.0281
▁operationType	-12.0281
most	-12.0283
TierPriceEntry	-12.0284
Expires	-12.0287
▁specifies	-12.0288
▁notified	-12.029
63	-12.0292
▁Bi	-12.0294
interface	-12.0295
Alphabet	-12.0296
.5	-12.0297
▁distributed	-12.0298
▁reported	-12.0299
▁getRange	-12.03
▁GeoPackage	-12.03
▁Found	-12.0301
▁recent	-12.0302
NUM	-12.0302
Snapshots	-12.0303
▁getSequence	-12.0305
Adaptor	-12.0306
DOWN	-12.0307
▁NUM	-12.0309
Caption	-12.0311
TTL	-12.0311
Firewall	-12.0313
HOME	-12.0313
About	-12.0313
ET	-12.0314
DOUBLE	-12.0318
▁getWrapped	-12.0319
▁OIndex	-12.032
GC	-12.0321
Dns	-12.0324
▁ends	-12.0324
▁readableBytes	-12.0324
ification	-12.0326
▁wallet	-12.0327
▁tries	-12.0332
oa	-12.0333
FLOAT	-12.0335
▁setX	-12.0335
72	-12.0336
ern	-12.0337
▁JsonProcessing	-12.0341
▁VAR	-12.0342
▁DataAccess	-12.0342
▁translator	-12.0347
CON	-12.0348
InstanceState	-12.0349
sequence	-12.035
▁insertion	-12.035
Inject	-12.0353
▁SOAP	-12.0358
▁retain	-12.0359
Credit	-12.0362
Fire	-12.0364
Swap	-12.0365
Latch	-12.0365
Outputs	-12.0366
▁findOne	-12.0366
={}"	-12.0366
▁getCategory	-12.0366
Parallel	-12.0367
▁getRandom	-12.0368
▁javaClass	-12.0368
▁createFrom	-12.0373
▁restriction	-12.0375
▁infer	-12.0375
ContentSpec	-12.0375
Contexts	-12.0377
boolean	-12.0377
▁beanDefinition	-12.0377
▁const	-12.0378
CORE	-12.038
▁getFloat	-12.0381
41	-12.0383
▁MUST	-12.0385
Hide	-12.0385
▁Axis	-12.0385
Customizer	-12.0386
SC	-12.0387
iter	-12.0388
▁getBegin	-12.0389
▁=>	-12.039
gr	-12.0392
▁getCms	-12.0392
▁workItem	-12.0393
▁policies	-12.0394
▁green	-12.0395
▁storeName	-12.0396
enable	-12.0396
sl	-12.0397
▁weak	-12.0398
loader	-12.0398
TenantContext	-12.04
▁photo	-12.0401
ext	-12.0404
▁Spark	-12.0407
commerceDiscount	-12.0408
ADD	-12.0408
▁Concept	-12.0408
▁CU	-12.0409
so	-12.0411
UR	-12.0411
ful	-12.0412
▁ServiceName	-12.0413
Fit	-12.0414
Please	-12.042
lex	-12.0422
ENDIAN	-12.0423
▁setActive	-12.0425
CHANGE	-12.0425
ial	-12.0427
Pt	-12.0427
Online	-12.0427
▁vectors	-12.0427
▁Next	-12.0428
▁relations	-12.0428
▁getProduct	-12.0429
mf	-12.043
Writing	-12.0431
Vfs	-12.0431
Txn	-12.0434
▁claims	-12.0436
▁progressRequest	-12.0438
activity	-12.0438
jjtree	-12.044
▁isPublic	-12.044
▁Bulk	-12.0441
▁getNamespaceURI	-12.0446
▁attrValue	-12.0448
▁GONE	-12.0449
MethodInvocation	-12.045
▁getG	-12.0452
▁intervals	-12.0454
▁maxResults	-12.0454
Graphic	-12.0456
▁presence	-12.0457
▁RequestBody	-12.0457
▁createElement	-12.0458
▁HOUR	-12.046
▁ZooKeeper	-12.0462
ifier	-12.0465
Maximum	-12.0466
▁ras	-12.0472
zero	-12.0472
NodeList	-12.0473
SHIFT	-12.0474
▁termination	-12.0474
finest	-12.048
▁Gosu	-12.048
Submission	-12.0481
▁Throwables	-12.0482
Failures	-12.0487
CONFIGURATION	-12.0488
Cross	-12.0489
▁authenticator	-12.0491
▁getTextContent	-12.0491
urn	-12.0491
Regions	-12.0491
▁searched	-12.0492
▁17	-12.0493
▁domains	-12.0498
▁unpack	-12.0498
▁invokeMethod	-12.0498
▁getServiceName	-12.0499
▁handleError	-12.05
▁stylesheet	-12.0503
▁setResult	-12.0507
▁outputs	-12.0507
Sip	-12.0509
FullName	-12.0511
IfNot	-12.0513
VALUES	-12.0513
Buffered	-12.0513
▁whenComplete	-12.0513
Mat	-12.0514
▁al	-12.0516
▁createObject	-12.0518
▁sax	-12.0519
Futures	-12.0519
▁hub	-12.0519
Bracket	-12.0521
FORM	-12.0521
metric	-12.0522
PROVIDER	-12.0523
fragment	-12.0523
▁userInfo	-12.0523
nu	-12.0524
endpoint	-12.0526
Instructions	-12.0528
▁0.1	-12.0533
▁getArgs	-12.0533
▁RequestBuilder	-12.0537
▁Readable	-12.0538
▁Animator	-12.0538
▁compareValues	-12.0538
agent	-12.0539
▁tl	-12.0539
▁getJava	-12.0541
▁Netty	-12.0542
▁nullable	-12.0542
Ast	-12.0543
▁proj	-12.0543
▁RUNNING	-12.0545
▁keyName	-12.0547
▁BUFFER	-12.0552
▁InvalidRequest	-12.0554
AF	-12.0555
▁animator	-12.0559
▁NodeUtil	-12.0559
ClassUml	-12.0561
▁readBoolean	-12.0563
--	-12.0564
ay	-12.0564
▁ValueType	-12.0564
locale	-12.0564
▁beanType	-12.0564
▁cpInstance	-12.0564
Front	-12.0564
JobExecution	-12.0566
▁production	-12.0568
▁classPK	-12.0568
▁ProgressRequest	-12.057
▁At	-12.057
PolicyResult	-12.0571
Img	-12.0571
▁refers	-12.0572
ler	-12.0573
Suggestion	-12.0575
▁isDefined	-12.0575
short	-12.0576
▁finding	-12.0576
▁DataInput	-12.0578
try	-12.0578
Roll	-12.0578
▁draft	-12.0578
▁produced	-12.0579
▁Jsp	-12.0579
▁Complete	-12.058
▁Transformation	-12.058
▁itemId	-12.0581
Sha	-12.0583
▁setFont	-12.0584
▁FieldInfo	-12.0585
▁Processing	-12.0587
▁WEB	-12.0588
▁colon	-12.0588
▁addClass	-12.0593
▁Mapped	-12.0596
▁setProject	-12.0597
▁sourceType	-12.06
roll	-12.0601
▁suitable	-12.0602
ClientConfig	-12.0602
Orders	-12.0604
▁sorting	-12.0604
Serial	-12.0605
gl	-12.0605
▁avg	-12.0605
Canonical	-12.0606
▁accessed	-12.0606
Tcp	-12.0609
▁aValue	-12.0612
ome	-12.0613
Unsigned	-12.0613
AsList	-12.0613
Must	-12.0614
▁SAML	-12.0615
▁implementations	-12.0617
▁signer	-12.0617
pass	-12.0617
▁BsonDocument	-12.062
Deprecated	-12.0621
▁negate	-12.0622
▁CASE	-12.0622
visit	-12.0623
ForeignKey	-12.0623
▁offline	-12.0623
skip	-12.0627
Rendering	-12.0627
▁Editor	-12.0631
▁Futures	-12.0631
▁getOut	-12.0631
▁proposal	-12.0636
ExecutionPlan	-12.0639
▁getH	-12.0639
RateLimit	-12.064
▁listOf	-12.0642
▁Declaration	-12.0645
▁fragments	-12.0647
Pom	-12.0648
ResponseBody	-12.0651
▁newCapacity	-12.0652
QUEUE	-12.0653
▁gr	-12.0655
▁scoped	-12.0656
▁applications	-12.0656
▁SCOPE	-12.0657
Calls	-12.0658
▁Literals	-12.0658
▁though	-12.0663
▁getController	-12.0664
▁48	-12.0665
▁diagnostic	-12.0667
Sku	-12.0668
▁REMOVE	-12.0672
Localized	-12.0676
▁hdr	-12.0677
▁shuffle	-12.0677
▁comparing	-12.068
ual	-12.0682
▁AsyncResult	-12.0683
▁methodInfo	-12.0685
Parents	-12.0686
▁immediate	-12.0687
▁FAILURE	-12.0688
▁GrayU	-12.0689
DeclaredMethods	-12.0689
▁styles	-12.0692
▁PS	-12.0694
▁Migration	-12.0695
▁getParser	-12.0698
▁didn	-12.0699
ReferenceCode	-12.07
▁mount	-12.0705
▁ve	-12.0705
bi	-12.0707
Prototype	-12.0707
▁getArtifactId	-12.0708
Sound	-12.0709
▁SocketAddress	-12.071
bl	-12.0716
▁DTM	-12.072
JvmTypeReference	-12.072
▁ETag	-12.0723
▁Instruction	-12.0724
->	-12.0724
Provided	-12.0726
QL	-12.0726
▁discover	-12.0727
Nr	-12.0728
__1__	-12.0731
▁/**	-12.0731
▁strValue	-12.0734
▁sections	-12.0735
▁executeRequest	-12.0735
▁Using	-12.0736
iff	-12.0736
dialogflow	-12.0736
▁jsonGenerator	-12.074
ChangeSet	-12.0742
▁Include	-12.0744
▁getQueue	-12.0745
▁predict	-12.0745
Robot	-12.0746
▁Adapter	-12.0746
▁getLayer	-12.0747
▁90	-12.0748
ka	-12.0752
▁MINUTE	-12.0753
Inc	-12.0754
▁follows	-12.0755
Ch	-12.0755
▁LogLevel	-12.0755
▁rebuild	-12.0758
OFF	-12.076
LayoutManager	-12.0764
InMillis	-12.0764
▁tip	-12.0766
▁fe	-12.0766
Attach	-12.0767
execute	-12.0767
▁interfaceName	-12.0767
▁requestBuilder	-12.0768
▁Flat	-12.077
▁getCached	-12.0773
▁Deserialization	-12.0774
▁groovy	-12.0775
▁VARCHAR	-12.0776
78	-12.0776
▁lead	-12.0776
▁raster	-12.0777
CPDefinition	-12.0777
eb	-12.0777
PROTOCOL	-12.0777
xf	-12.0779
▁META	-12.078
edit	-12.078
▁SA	-12.078
▁TypeLiteral	-12.078
▁outputDirectory	-12.078
▁Executors	-12.0782
▁Patch	-12.0783
▁Quick	-12.0784
▁swing	-12.0785
▁Notify	-12.0785
▁queueName	-12.0785
OrderBook	-12.0785
▁fatal	-12.0786
▁getReport	-12.0786
▁Kernel	-12.0788
▁refer	-12.0789
Overrides	-12.079
Latitude	-12.0791
Stopping	-12.0792
StreamId	-12.0792
▁billing	-12.0793
ProgressListener	-12.0794
▁near	-12.0794
▁triple	-12.0794
▁AtomicReference	-12.0795
ock	-12.0795
Notation	-12.0797
▁applies	-12.0798
▁SO	-12.0798
▁snippet	-12.0799
▁startOffset	-12.0799
000000	-12.0801
transaction	-12.0803
▁slots	-12.0805
rain	-12.0805
▁largest	-12.0812
inter	-12.0813
▁nfe	-12.0814
▁isWhitespace	-12.0816
▁getIcon	-12.0816
▁PlanNode	-12.0817
▁Jms	-12.082
tu	-12.082
Indexer	-12.0822
▁HttpPost	-12.0822
ger	-12.0823
Composition	-12.0823
▁anonymous	-12.0825
Mojo	-12.0827
ele	-12.0829
ENTRY	-12.0829
▁historic	-12.0829
Uninitialized	-12.0829
▁TOKEN	-12.0831
▁getIs	-12.0836
HIT	-12.0837
▁unicode	-12.084
▁readData	-12.0842
Ontology	-12.0842
Assessment	-12.0843
RecordId	-12.0843
▁Workspace	-12.0844
▁accumulate	-12.0846
Android	-12.0847
Encrypted	-12.0847
Sym	-12.085
▁lst	-12.0852
Dt	-12.0853
▁bf	-12.0855
UTC	-12.0857
RowKey	-12.0857
▁remain	-12.086
▁sun	-12.0864
ors	-12.0865
year	-12.0865
▁operands	-12.0866
Validity	-12.0866
▁availability	-12.0869
Got	-12.087
▁docs	-12.0873
bucket	-12.0873
▁cont	-12.0878
▁SECURITY	-12.088
▁metaModel	-12.0884
ied	-12.0884
Spacing	-12.0887
▁serviceId	-12.0889
▁JavaTypes	-12.089
▁qname	-12.0891
Shortcut	-12.0895
▁ClassName	-12.0895
▁PROCESS	-12.0896
▁runs	-12.0899
▁nr	-12.09
FailureException	-12.0902
Rotate	-12.0903
▁deleteresource	-12.0905
Multipart	-12.0905
TypeArguments	-12.0906
Voice	-12.0906
Colon	-12.0907
AV	-12.0908
▁newSize	-12.091
▁indentation	-12.0912
elements	-12.0916
Concrete	-12.0917
▁expiry	-12.0918
▁sigma	-12.0918
remote	-12.0919
bus	-12.092
▁RangeQuery	-12.0924
po	-12.0925
Communication	-12.0927
struct	-12.0927
)."	-12.0929
after	-12.093
found	-12.0934
Comma	-12.0935
▁formats	-12.0935
timestamp	-12.0937
provider	-12.0937
▁boundingBox	-12.094
▁sq	-12.0941
PrimitiveType	-12.0941
Approval	-12.0944
Replies	-12.0944
AGENT	-12.0945
product	-12.0945
DisplayName	-12.0945
▁trustStore	-12.0946
▁shortName	-12.0947
LB	-12.0948
],	-12.095
▁jpa	-12.0951
TIMESTAMP	-12.0951
▁Locator	-12.0952
▁getPrevious	-12.0952
ENC	-12.0954
Domains	-12.0955
▁theta	-12.0958
▁FileChannel	-12.096
ALLOWED	-12.0961
▁requestCode	-12.0962
Conference	-12.0962
▁NANOSECONDS	-12.0962
▁getDisplay	-12.0962
▁createRequest	-12.0963
Lists	-12.0963
▁Modbus	-12.0971
▁published	-12.0971
▁transient	-12.0971
▁Restore	-12.0972
CASE	-12.0972
▁pl	-12.0973
shared	-12.0974
GL	-12.0974
gram	-12.0974
Interest	-12.0975
mt	-12.0976
BOX	-12.0982
DP	-12.0985
Chooser	-12.0988
▁LayoutInflater	-12.0989
▁DataOutput	-12.0992
generate	-12.0992
▁notation	-12.0995
Responses	-12.0997
jboss	-12.0999
destination	-12.0999
Authorities	-12.1
▁10000	-12.1001
StringValue	-12.1002
Bundles	-12.1002
dValue	-12.1004
JarFile	-12.1005
▁uriInfo	-12.1006
▁objectInput	-12.1007
THRESHOLD	-12.1007
variable	-12.1008
▁backward	-12.1008
▁getResourceType	-12.1011
Gui	-12.1013
▁getRowCount	-12.1015
▁produces	-12.1015
▁jsonString	-12.1019
▁CUSTOM	-12.102
▁declarations	-12.1021
▁rendering	-12.1024
Buttons	-12.1024
▁SUBSYSTEM	-12.1025
step	-12.1026
▁MULTI	-12.1029
▁subtree	-12.103
attributes	-12.1033
▁maintain	-12.1034
Ts	-12.1035
datalabeling	-12.1035
▁regions	-12.1036
▁loss	-12.1038
NDArray	-12.1041
▁sparse	-12.1042
▁Tracing	-12.1042
▁paramType	-12.1043
Construction	-12.1043
ecurityException	-12.1043
card	-12.1044
▁please	-12.1045
▁DNS	-12.1046
▁JobExecution	-12.1047
PI	-12.1047
▁ceil	-12.1048
▁textView	-12.1048
▁getSessionId	-12.1051
Caching	-12.1054
decode	-12.1054
Inherited	-12.1054
Vm	-12.1055
Quoted	-12.1056
▁review	-12.1057
▁Unicode	-12.1059
▁sv	-12.106
▁RenderingHints	-12.1061
================	-12.1065
LS	-12.1067
▁getUnit	-12.1068
section	-12.107
▁capability	-12.107
save	-12.1071
Initialize	-12.1073
▁resultList	-12.1073
▁quotes	-12.1074
▁HOST	-12.1074
Review	-12.1074
Rs	-12.1075
▁currentUser	-12.1077
RequestBody	-12.1077
ular	-12.1078
62	-12.1078
ops	-12.1079
That	-12.1081
▁setDate	-12.1088
▁XA	-12.1089
▁migrate	-12.109
Clip	-12.109
Uid	-12.109
▁Orient	-12.1091
▁validationError	-12.1094
▁NS	-12.1095
▁dead	-12.1097
private	-12.1099
Spring	-12.1099
▁GLOBAL	-12.1099
metadata	-12.11
ax	-12.11
XY	-12.1101
▁Proto	-12.1103
▁opening	-12.1104
▁PExp	-12.1105
Consistency	-12.1105
ServiceImpl	-12.1106
Rollup	-12.1106
▁slide	-12.1106
Google	-12.1108
ReturnValue	-12.1112
▁\"%	-12.1113
Prime	-12.1113
hasMoreTokens	-12.1114
Serialize	-12.1115
SourceFile	-12.1115
▁Init	-12.1115
ActivityInstance	-12.1117
ToInt	-12.1119
▁yield	-12.1119
ContextFactory	-12.112
▁JarFile	-12.1126
VE	-12.1127
▁getRootPath	-12.1127
▁Regex	-12.1128
Btn	-12.1134
Once	-12.1134
CodePoint	-12.1134
ConsistencyLevel	-12.1135
desc	-12.1135
▁getNodes	-12.1137
Assembly	-12.1138
▁argTypes	-12.1138
▁processes	-12.1138
services	-12.114
▁holding	-12.1143
▁OData	-12.1144
▁ksession	-12.1146
▁Wrapper	-12.1146
▁Solr	-12.1151
▁equality	-12.1152
cur	-12.1153
▁failover	-12.1154
▁suppress	-12.1155
Power	-12.1155
DefinitionKey	-12.1155
Resize	-12.1155
▁JButton	-12.1155
▁Before	-12.1157
▁getSite	-12.1158
Handled	-12.1159
▁Encoder	-12.1159
▁PRIVATE	-12.116
▁Animation	-12.116
ServiceProvider	-12.1161
wise	-12.1164
EntryPoint	-12.1167
▁ROLE	-12.1168
FormatError	-12.1169
▁SECOND	-12.1172
▁WebService	-12.1172
Vote	-12.1172
▁elt	-12.1173
projects	-12.1179
▁getFacet	-12.118
Loss	-12.118
Charge	-12.1183
▁roleName	-12.1185
GRAPH	-12.1188
listener	-12.1189
▁ROW	-12.1189
▁Atomic	-12.119
▁CmsProperty	-12.1196
▁hasOption	-12.1197
▁deployed	-12.12
BODY	-12.12
PUBLIC	-12.12
MAPPING	-12.12
▁years	-12.1203
28	-12.1204
▁argv	-12.1204
▁Alignment	-12.1207
▁important	-12.1208
▁Exceptions	-12.121
Assignable	-12.1211
▁jsonObj	-12.1213
DeclaredMethod	-12.1218
▁maxWidth	-12.1219
▁InMemory	-12.122
gml	-12.1223
Checks	-12.1225
PullRequest	-12.1226
Elastic	-12.1226
CodeableConcept	-12.1228
▁classNameId	-12.1228
▁getMetric	-12.1228
Slider	-12.123
▁letter	-12.1231
▁CaseInsensitive	-12.1232
▁Smb	-12.1233
▁bookmark	-12.1234
▁KeeperException	-12.1234
▁eviction	-12.1235
ae	-12.1237
expr	-12.1237
▁mIs	-12.1239
▁soap	-12.124
Allele	-12.1242
▁setProperties	-12.1243
▁setPath	-12.1243
Sections	-12.1248
InsnNode	-12.1249
Plural	-12.1252
ColumnIndex	-12.1254
ommerceWarehouse	-12.1256
128	-12.1257
▁authorized	-12.1257
▁Folder	-12.1258
Std	-12.1261
▁locales	-12.1261
▁spark	-12.1262
Pk	-12.1263
▁solr	-12.1263
TLS	-12.1264
▁pro	-12.1264
PROXY	-12.1265
▁estimated	-12.1265
SEC	-12.1268
meter	-12.127
▁Chrono	-12.1271
▁createTable	-12.1271
Matchers	-12.1274
▁getBucket	-12.1274
▁NodeType	-12.1276
▁getScript	-12.1279
▁endOf	-12.1281
▁userData	-12.1283
▁cy	-12.1283
▁cnx	-12.1284
Roots	-12.1284
▁IResource	-12.1284
▁ipAddress	-12.1285
TX	-12.1287
▁introspect	-12.1287
▁getHostName	-12.1289
Topics	-12.129
▁viewHolder	-12.1292
▁human	-12.1292
▁delayed	-12.1293
Formula	-12.1294
▁ty	-12.1296
IV	-12.1297
▁executionId	-12.1299
▁Lex	-12.13
▁imp	-12.1303
▁errorHandler	-12.1303
▁toJSON	-12.1305
acc	-12.1306
▁repaint	-12.1308
Arrow	-12.1308
▁supertype	-12.1309
▁stdout	-12.1309
ExpIR	-12.1311
users	-12.1313
▁inventory	-12.1314
▁getStore	-12.1316
▁Timed	-12.1316
▁NoSuchCP	-12.1316
▁leaving	-12.1317
▁fun	-12.1318
▁narrow	-12.1318
▁ri	-12.1319
SUCCESS	-12.1321
alpha	-12.1321
▁JAXBException	-12.1323
▁sg	-12.1324
▁unmodifiableMap	-12.1325
ug	-12.1326
▁completedFuture	-12.1331
▁getZ	-12.1332
▁nn	-12.1332
▁filtering	-12.1334
▁jsonNode	-12.1334
▁lit	-12.1335
▁StandardType	-12.1335
▁setUrl	-12.1336
PAREN	-12.1337
▁hand	-12.1338
Committed	-12.1339
▁passing	-12.134
▁getOptionValue	-12.1341
▁making	-12.1341
▁Pojo	-12.1341
▁getOr	-12.1342
SR	-12.1342
Opts	-12.1343
▁measurement	-12.1345
TI	-12.1346
Href	-12.135
1/	-12.135
▁Hierarchical	-12.1351
Suggestions	-12.1351
Converted	-12.1352
ByUuid	-12.1353
61	-12.1354
▁several	-12.1354
▁ODistributed	-12.1356
CM	-12.1357
IDENTIFIER	-12.1358
replace	-12.1359
▁described	-12.136
▁Guacamole	-12.136
▁isDefault	-12.1361
Leave	-12.1363
▁smallest	-12.1364
▁slow	-12.1364
▁organizationId	-12.1365
▁Then	-12.1367
▁restClient	-12.1367
Verify	-12.1367
▁SIMP	-12.137
These	-12.1372
▁chunkSize	-12.1373
▁degree	-12.1375
▁pane	-12.1375
IfNull	-12.1376
▁age	-12.1376
Appendable	-12.1382
Affected	-12.1382
▁actionPerformed	-12.1382
▁substitute	-12.1385
▁windows	-12.1392
▁MessageType	-12.1394
▁ReadOnly	-12.1397
Timezone	-12.1397
▁Producer	-12.1397
PID	-12.1399
▁Payload	-12.1401
▁Gauge	-12.1404
Ver	-12.1404
▁pdf	-12.1405
POINT	-12.1406
Tensor	-12.1406
▁Binder	-12.1407
▁createTempFile	-12.1408
▁across	-12.141
InjectionPoint	-12.1413
▁black	-12.1416
▁semantics	-12.1419
lf	-12.1421
Vpc	-12.1422
▁Partial	-12.1423
Cut	-12.1425
CO	-12.1426
▁transpose	-12.1427
▁mol	-12.1427
▁ocpDate	-12.1429
▁PARAMETER	-12.143
▁Last	-12.1435
Vals	-12.1436
▁getErrorMessage	-12.1437
AttributeNames	-12.1437
▁trg	-12.1438
Cr	-12.1441
▁controls	-12.1443
▁INITIAL	-12.1446
Retention	-12.1446
▁poly	-12.1447
dn	-12.1447
Avatar	-12.1448
DELAY	-12.1448
▁calculation	-12.1448
Legend	-12.1448
▁bundleContext	-12.1454
Prediction	-12.1455
▁pluginId	-12.1456
▁Naming	-12.1458
▁lost	-12.1458
▁cclass	-12.1458
▁stripe	-12.1458
Bolt	-12.1459
▁toRemove	-12.1461
MARKER	-12.1463
▁sameDiff	-12.1464
▁CLUSTER	-12.1465
▁scm	-12.1465
ClassNames	-12.1467
▁Other	-12.1469
tags	-12.1471
▁foreign	-12.1472
ACK	-12.1472
▁addView	-12.1477
▁collections	-12.1478
LowerCase	-12.1481
TT	-12.1481
▁circuit	-12.1482
AsInt	-12.1482
▁CS	-12.1486
▁getMaximum	-12.149
▁uploaded	-12.1492
▁spatial	-12.1494
▁incr	-12.1494
▁Presto	-12.1495
▁getHostAddress	-12.1496
▁IntStream	-12.1496
RowCount	-12.1497
▁"|"	-12.1497
▁ois	-12.1499
Colors	-12.15
▁removeListener	-12.1501
▁submission	-12.1502
__1	-12.1508
DELIMITER	-12.1509
▁getNetwork	-12.1509
VAL	-12.1511
▁isLocal	-12.1512
▁reach	-12.1513
▁epsilon	-12.1513
▁removeChild	-12.1513
Computer	-12.1514
▁ClassUtils	-12.1515
▁getAdapter	-12.1517
▁Specification	-12.1518
ContextImpl	-12.1519
Instantiator	-12.1524
CENTER	-12.1525
▁workers	-12.1526
push	-12.1527
QueryParameter	-12.1527
ClientFactory	-12.1529
▁OTHER	-12.1529
▁compilation	-12.153
▁getPrimary	-12.1531
Filtered	-12.1532
▁formatMessage	-12.1533
▁fw	-12.1536
ParameterType	-12.154
▁Delta	-12.1541
94	-12.1541
▁getColumnCount	-12.1542
Thrift	-12.1542
▁ServiceLoader	-12.1543
▁cover	-12.1543
▁automl	-12.1544
▁setPort	-12.1544
▁blocked	-12.1545
REGEX	-12.1545
▁POSITIVE	-12.1546
lu	-12.1548
▁upsert	-12.1549
▁setHttpMethod	-12.155
▁viewer	-12.155
▁pseudo	-12.1551
▁byteBuf	-12.1552
▁ZipFile	-12.1553
▁RT	-12.1553
▁28	-12.1554
▁Res	-12.1554
alert	-12.1557
▁getCreate	-12.1558
▁Tool	-12.1561
Variance	-12.1561
▁bbox	-12.1561
ToSet	-12.1561
EmailAddress	-12.1563
▁byteCount	-12.1569
▁Css	-12.157
Parallelism	-12.157
▁setSchema	-12.1571
▁synpred	-12.1571
▁Avro	-12.1572
ContentHandler	-12.1572
ten	-12.1573
▁colName	-12.1573
lon	-12.1573
▁getEncoded	-12.1575
None	-12.1578
▁{0}"	-12.1579
▁sms	-12.1581
BlockSize	-12.1582
FP	-12.1585
Age	-12.1588
DM	-12.1591
our	-12.1591
▁targetFile	-12.1591
▁triggered	-12.1592
▁addFilter	-12.1593
▁Need	-12.1594
▁pipelineConfig	-12.1596
▁ENUM	-12.1597
HASH	-12.1597
▁sy	-12.1598
▁decrement	-12.1601
Different	-12.1602
WorkItem	-12.1603
▁getDriver	-12.1604
▁Multipart	-12.1604
▁ITEM	-12.1604
Cancelled	-12.1604
Prepared	-12.1608
Applied	-12.1608
▁sanitize	-12.161
▁px	-12.1612
▁readExternal	-12.1613
▁Switch	-12.1613
▁finalize	-12.1614
getCanonicalPath	-12.1614
▁annotate	-12.162
▁onto	-12.1621
CheckForNull	-12.1622
transform	-12.1626
folder	-12.1628
TypeMap	-12.1629
▁propertyKey	-12.1629
▁Socialize	-12.163
MODEL	-12.1632
▁fullPath	-12.1632
Kernel	-12.1633
▁requirements	-12.1634
▁conflict	-12.1636
zone	-12.1637
▁Hazelcast	-12.1637
▁getErrorCode	-12.1639
▁getStage	-12.164
Executions	-12.1641
THREAD	-12.1643
bundle	-12.1643
▁OUTPUT	-12.1644
▁undo	-12.1644
▁BINARY	-12.1646
▁debugf	-12.1646
DetectionJob	-12.1646
Expansion	-12.1646
▁deregister	-12.1647
▁RPC	-12.1648
▁CHECK	-12.1649
▁Prepare	-12.1655
▁synchronize	-12.1656
▁getW	-12.1657
▁bid	-12.1657
▁neither	-12.1657
FE	-12.1658
▁DefaultRequest	-12.1659
▁getGraph	-12.1661
▁containerName	-12.1665
▁Just	-12.1666
▁decorate	-12.1666
▁manually	-12.1666
▁getFrame	-12.1667
▁mContext	-12.1668
▁XAException	-12.1669
▁Visit	-12.1669
NT	-12.1672
▁ObjectInput	-12.1674
Activator	-12.1675
▁surface	-12.1675
Durable	-12.1675
▁triggers	-12.1676
▁purpose	-12.1678
▁Resolved	-12.1679
▁HttpMessage	-12.1679
▁ASN	-12.168
ResourceRequest	-12.168
Compaction	-12.1681
▁internally	-12.1683
Scores	-12.1683
AnnotationMirror	-12.1683
▁Phase	-12.1684
parameters	-12.1684
▁semantic	-12.1687
ANNOTATION	-12.1687
▁newNode	-12.1688
▁uncompressed	-12.1689
▁cleaned	-12.169
▁Wrapped	-12.1691
Yaml	-12.1691
BenchmarkResult	-12.1692
▁Tab	-12.1692
Risk	-12.1693
▁fin	-12.1693
▁processId	-12.1694
▁isVisible	-12.1696
Locks	-12.1698
DF	-12.1699
▁Ordering	-12.1699
prot	-12.17
GroupBy	-12.1701
▁Visibility	-12.1701
▁createDate	-12.1702
WithHeaders	-12.1702
▁consistency	-12.1702
tracef	-12.1703
selected	-12.1707
▁Look	-12.1708
Inclusion	-12.1709
▁logError	-12.171
child	-12.1711
Ws	-12.1712
▁injected	-12.1715
▁PMML	-12.1715
STYLE	-12.1715
▁HC	-12.1716
validate	-12.1718
▁TypeInformation	-12.1718
Flat	-12.1718
TopLevel	-12.172
Stale	-12.1722
▁consist	-12.1723
SUCH	-12.1724
▁Card	-12.1725
▁LinearLayout	-12.1727
▁bonds	-12.1729
▁micro	-12.1732
Thumbnail	-12.1733
▁Day	-12.1737
▁sourceClass	-12.1737
isation	-12.1737
HashSet	-12.1738
▁encounter	-12.1739
Uniform	-12.1739
▁refs	-12.1741
▁addArgument	-12.1741
Cg	-12.1742
▁COMMAND	-12.1744
Detect	-12.1744
▁vertx	-12.1744
▁-->	-12.1745
Pressed	-12.1745
\\."	-12.1747
▁cleared	-12.1747
▁station	-12.1748
2.0	-12.1749
▁tb	-12.1749
▁Special	-12.175
▁online	-12.1751
▁ni	-12.1752
RelativePath	-12.1753
ElementName	-12.1754
shape	-12.1754
▁SearchResult	-12.1757
Trait	-12.1759
JDBC	-12.1759
AttributesResult	-12.1761
▁getStatusLine	-12.1762
▁descending	-12.1762
Accessible	-12.1765
lm	-12.1766
Org	-12.1767
▁Abort	-12.1768
▁identical	-12.177
▁applying	-12.177
▁clearCache	-12.177
▁getRequestURI	-12.177
▁parity	-12.1772
▁columnType	-12.1773
▁fullyQualified	-12.1774
▁anyway	-12.1774
▁gallery	-12.1776
▁tempDir	-12.1776
▁rawValue	-12.1776
ParameterValue	-12.1776
XA	-12.1778
▁Registers	-12.1778
NotificationImpl	-12.1781
▁INSERT	-12.1782
▁buttons	-12.1783
Rack	-12.1785
Startup	-12.1785
▁repeated	-12.1786
mer	-12.1786
OPTIONS	-12.1788
MessageId	-12.1788
FactoryBean	-12.1788
▁ssh	-12.1789
coordinate	-12.1789
▁picture	-12.179
Continuation	-12.1791
▁triangle	-12.1791
iterator	-12.1792
GreaterThan	-12.1793
▁Encode	-12.1794
▁Statistics	-12.1794
▁MathUtil	-12.1798
▁getHandler	-12.1801
▁writeValue	-12.1801
TypeSignature	-12.1801
XAnnotation	-12.1805
▁Evaluator	-12.1806
▁topics	-12.1806
▁InputType	-12.1809
Big	-12.1809
NewLine	-12.181
▁submitted	-12.181
Major	-12.1811
▁formatting	-12.1816
▁setAction	-12.1818
▁XSD	-12.1819
▁spi	-12.1822
▁parseFloat	-12.1824
▁tw	-12.1824
▁operationName	-12.1826
DOCUMENT	-12.1828
ADDR	-12.1829
▁ResponseWriter	-12.183
▁thus	-12.1831
RequestHandler	-12.1831
Nonnegative	-12.1832
SECONDS	-12.1832
▁gives	-12.1833
▁ejs	-12.1834
▁communication	-12.1835
memory	-12.1838
ph	-12.1838
uck	-12.1843
Verb	-12.1843
IfAvailable	-12.1843
layout	-12.1844
ByType	-12.1845
▁80	-12.1847
Modifications	-12.1848
fx	-12.1849
▁kie	-12.185
Coll	-12.185
note	-12.1851
▁detection	-12.1852
▁shouldn	-12.1852
▁ZIP	-12.1853
Eq	-12.1854
Successfully	-12.1855
▁AL	-12.1856
▁setHeight	-12.1856
xx	-12.1856
METADATA	-12.1858
Opened	-12.1859
Referenced	-12.1859
Incident	-12.186
▁prediction	-12.1862
▁multimap	-12.1863
Enc	-12.1863
NN	-12.1864
▁inspect	-12.1864
▁getGet	-12.1864
Keywords	-12.1866
faces	-12.1867
tf	-12.1867
VARIABLE	-12.1867
Outgoing	-12.1869
▁ServletResponse	-12.1871
▁VisitorState	-12.1875
Accepted	-12.1875
Claims	-12.1876
▁dash	-12.1876
73	-12.1876
children	-12.1877
Evidence	-12.1879
BS	-12.188
▁XExpression	-12.188
Keyboard	-12.1883
▁getChildAt	-12.1885
Retrieve	-12.1889
LISTENER	-12.1889
gm	-12.1889
▁Jwt	-12.189
Paging	-12.189
Hold	-12.1892
▁getBinary	-12.1893
▁EChange	-12.1894
BetaApi	-12.1895
OrThrow	-12.1895
▁exponent	-12.1896
▁Navigation	-12.1896
font	-12.1897
Shipping	-12.1897
▁optimization	-12.1899
using	-12.19
▁reversed	-12.1903
▁getNextToken	-12.1903
ENT	-12.1905
▁setS	-12.1906
▁Deferred	-12.1907
Tracer	-12.1908
▁Port	-12.1908
ward	-12.1908
▁lemma	-12.1908
▁baseline	-12.191
InUse	-12.1911
▁getSort	-12.1911
▁UNDEFINED	-12.1912
Bid	-12.1913
▁cbuf	-12.1913
Mongo	-12.1915
▁hs	-12.1915
Secs	-12.1916
MaxSize	-12.1917
▁getServlet	-12.1918
▁Child	-12.1918
▁alter	-12.1918
▁AccessControl	-12.1919
Discount	-12.1919
▁Priority	-12.1923
▁setStyle	-12.1924
points	-12.1925
▁ViewHolder	-12.1927
Cover	-12.193
getName	-12.193
▁INDENT	-12.1931
Transitions	-12.1936
▁objs	-12.1936
screen	-12.1936
▁getSelection	-12.1938
▁wrapping	-12.194
Trying	-12.194
▁getContextPath	-12.1941
GEN	-12.1943
LogLevel	-12.1944
▁getPermission	-12.1946
▁getDelete	-12.1947
▁things	-12.1948
▁separatorChar	-12.1948
▁MethodHandle	-12.1951
MODULE	-12.1954
Tuples	-12.1954
▁Logical	-12.1956
Controls	-12.1956
▁ASCII	-12.1959
PO	-12.196
▁Tx	-12.1962
▁URLConnection	-12.1964
▁isAbsolute	-12.1964
▁Checked	-12.1965
ServiceRef	-12.1965
▁jndiName	-12.1967
Eviction	-12.1968
▁TypeSerializer	-12.1969
▁getLimit	-12.1971
MOVE	-12.1975
▁density	-12.1976
ord	-12.1976
RUN	-12.1977
▁toAdd	-12.1978
▁VFS	-12.1979
▁countDown	-12.1979
comment	-12.198
items	-12.1982
UserProfile	-12.1983
split	-12.1983
▁ontology	-12.1984
▁getMeta	-12.1986
FIRST	-12.1986
▁authorize	-12.1989
OVER	-12.199
▁nextChar	-12.1992
▁Facebook	-12.1992
▁die	-12.1992
▁injectionPoint	-12.1993
▁Indy	-12.1998
▁ACL	-12.1998
▁Mark	-12.2
▁Acl	-12.2003
Pad	-12.2005
encoded	-12.2005
▁getInitial	-12.2005
contains	-12.2006
storage	-12.2006
Sketch	-12.2007
▁Free	-12.2007
Issuer	-12.2009
tick	-12.201
▁fqn	-12.2013
▁MBeanServer	-12.2016
GA	-12.2017
▁getUnique	-12.2019
ROW	-12.2023
▁TT	-12.2024
▁ExecutionEntity	-12.2024
Triggers	-12.2027
▁asm	-12.2028
VpcEndpoint	-12.2028
▁bson	-12.2028
▁optString	-12.203
env	-12.2031
docs	-12.2035
pable	-12.2036
clear	-12.2037
▁setTo	-12.2037
▁ent	-12.2038
▁RS	-12.2039
▁populated	-12.204
▁glob	-12.2042
▁tls	-12.2044
Hello	-12.2045
▁BoundingBox	-12.2045
INSERT	-12.2046
▁stroke	-12.2049
51	-12.205
▁Release	-12.2051
[0]	-12.2051
▁cron	-12.2052
93	-12.2054
▁atomicOperation	-12.2054
▁getResults	-12.2056
▁responsible	-12.2057
ParameterGroup	-12.2058
▁GeneralS	-12.2059
4"	-12.2061
▁getRows	-12.2063
▁math	-12.2064
ColumnFamily	-12.2064
▁getServices	-12.2065
Market	-12.2065
:4	-12.2065
engine	-12.2065
▁reports	-12.2066
▁SORT	-12.2075
SU	-12.2076
▁javadoc	-12.2077
▁Qualifier	-12.2078
▁natural	-12.2079
cy	-12.208
▁Movie	-12.2081
Baseline	-12.2081
Products	-12.2081
_005	-12.2083
▁copyBuilder	-12.2083
Inv	-12.2085
▁FOR	-12.2086
▁JsonParse	-12.2086
▁getRead	-12.2086
LITERAL	-12.2086
talent	-12.2087
Black	-12.2087
▁asynchronously	-12.2088
▁setPassword	-12.209
▁phoneNumber	-12.2092
▁logFile	-12.2094
▁schemas	-12.2095
▁recorded	-12.2096
category	-12.2097
encoding	-12.2097
Own	-12.2098
▁getUn	-12.2098
fill	-12.2099
Addon	-12.2101
PR	-12.2102
▁mojo	-12.2103
▁interpret	-12.2103
▁deserialized	-12.2104
▁AstNode	-12.2105
▁statuses	-12.2106
Paragraph	-12.2107
Advice	-12.2107
Walker	-12.2108
▁stopping	-12.211
vm	-12.211
▁CLOSED	-12.211
▁getRevision	-12.2112
▁setBorder	-12.2112
getRef	-12.2112
▁COLOR	-12.2113
▁Private	-12.2113
▁Panel	-12.2114
▁Detect	-12.2115
LifeCycle	-12.2117
MQ	-12.2117
Seg	-12.2118
plugin	-12.2118
▁Capture	-12.2121
▁handleRequest	-12.2122
▁IRI	-12.2123
Accounts	-12.2123
▁etag	-12.2124
▁FINAL	-12.2125
▁prefer	-12.2128
▁updater	-12.2129
▁ticker	-12.2133
▁duplicates	-12.2136
ExtendedData	-12.2138
▁StringHelper	-12.2138
Cleaner	-12.2138
MILLIS	-12.2138
RB	-12.2141
▁getTile	-12.2141
TypeIR	-12.2142
▁Assertion	-12.2143
74	-12.2147
▁CREATED	-12.2149
dy	-12.2151
▁gather	-12.2153
BOUND	-12.2154
que	-12.2156
tm	-12.2156
opengis	-12.2157
Pager	-12.2162
▁copyOfRange	-12.2163
▁checkout	-12.2163
Consume	-12.2166
Discard	-12.2167
Stores	-12.2168
full	-12.2169
▁TypedValue	-12.2171
▁getBinding	-12.2173
▁lr	-12.2179
ship	-12.218
▁Clock	-12.2182
▁getFileSystem	-12.2184
mon	-12.2184
▁setY	-12.2185
▁getFont	-12.2187
▁XMLStreamReader	-12.219
▁getAndSet	-12.219
Resume	-12.2192
FX	-12.2193
extension	-12.2195
▁reducer	-12.2197
▁postProcess	-12.2197
Tests	-12.2198
▁dayOfMonth	-12.2198
▁webhook	-12.2198
DOM	-12.2198
▁ParamUtil	-12.2201
▁Fill	-12.2203
Blur	-12.2204
▁listIterator	-12.2206
▁classType	-12.2208
▁generating	-12.2208
HEIGHT	-12.2208
▁rack	-12.2208
▁tokenType	-12.2209
▁heading	-12.2209
▁That	-12.221
▁Historic	-12.2211
dom	-12.2213
▁1.1	-12.2215
▁initCause	-12.2215
Rewrite	-12.2217
▁GC	-12.2217
simple	-12.2219
Spliterator	-12.2219
PaymentMethod	-12.2221
Are	-12.2221
▁ObjectOutput	-12.2225
Mac	-12.2227
▁ident	-12.2227
▁holds	-12.2228
Manual	-12.2229
ParameterNames	-12.223
WorkUnit	-12.223
Expiry	-12.2231
AsMap	-12.2231
▁ValidationError	-12.2233
▁typedArray	-12.2234
Team	-12.2234
BeCopied	-12.2234
▁typeArguments	-12.2235
▁Drop	-12.2236
▁getActual	-12.2237
matrix	-12.2239
▁ste	-12.224
metrics	-12.2245
▁Executes	-12.2245
Rejected	-12.2246
Near	-12.2247
▁HBase	-12.2247
Prompt	-12.2248
Spinner	-12.2249
▁instrumentation	-12.2249
▁setNext	-12.2258
IfAbsent	-12.2258
ef	-12.2258
Screenshot	-12.2259
Population	-12.2259
▁containsAll	-12.2259
▁computation	-12.226
▁getPrimaryKey	-12.226
WithDefault	-12.226
▁writeData	-12.2262
▁isSame	-12.2264
▁repositories	-12.2264
filtered	-12.2264
center	-12.2266
▁neighbors	-12.2266
▁sup	-12.2267
Ping	-12.2267
Partitioner	-12.2268
▁getGeometry	-12.2268
▁unwrapped	-12.2269
JAVA	-12.2269
▁ta	-12.2271
▁subclasses	-12.2273
▁others	-12.2273
▁PdfName	-12.2274
▁Dns	-12.2275
▁unbind	-12.2276
▁putShort	-12.2276
▁released	-12.2276
▁CT	-12.2279
Repeated	-12.2279
running	-12.228
ObjectId	-12.228
▁mutex	-12.2283
▁nextLine	-12.2284
▁canRead	-12.2285
▁Verification	-12.2286
▁outState	-12.2288
▁MS	-12.2288
Provision	-12.2296
▁gui	-12.2297
ATE	-12.2298
Proxies	-12.2299
Explorer	-12.2299
▁pf	-12.23
▁23	-12.23
▁Deque	-12.2302
▁channelId	-12.2303
▁createMessage	-12.2305
ki	-12.2306
EM	-12.2308
▁setTag	-12.2308
SV	-12.2309
:5	-12.2309
▁operators	-12.2309
Album	-12.231
WR	-12.231
▁transitions	-12.231
UnsignedShort	-12.231
▁sequential	-12.231
dist	-12.231
Implementor	-12.231
▁UserException	-12.2312
▁gzip	-12.2313
▁bag	-12.2318
uid	-12.2319
▁mutate	-12.2321
Relational	-12.2321
▁depends	-12.2322
▁typeRef	-12.2322
Importer	-12.2326
SECOND	-12.2327
▁Cast	-12.2329
Navigator	-12.233
▁BIT	-12.2332
▁Digest	-12.2332
▁GT	-12.2334
CompositeNode	-12.2335
▁pn	-12.2336
▁LI	-12.2336
▁EDataType	-12.2337
▁mul	-12.2337
▁FieldDescriptor	-12.2339
▁recurse	-12.234
Salt	-12.2345
▁removeFrom	-12.2346
▁Bus	-12.2347
▁Where	-12.2348
ALGORITHM	-12.2351
Webhook	-12.2352
▁depend	-12.2352
▁ha	-12.2353
segment	-12.2353
▁JNDI	-12.2359
Picture	-12.2362
callback	-12.2363
▁Services	-12.2367
▁Decode	-12.2367
Folders	-12.2368
▁CONTEXT	-12.2369
▁addNew	-12.2369
RP	-12.2369
▁addAnnotation	-12.237
▁unresolved	-12.2371
Concurrency	-12.2373
▁JApi	-12.2375
Breakpoint	-12.2375
▁goal	-12.2376
▁collectionName	-12.2376
999	-12.2379
201809	-12.2381
▁Higher	-12.2381
▁inferred	-12.2382
▁Kryo	-12.2382
▁getCalendar	-12.2382
emberFeatureCall	-12.2383
▁getV	-12.2383
lic	-12.2385
▁isAbstract	-12.2386
▁Library	-12.2387
▁getDirectory	-12.2387
▁instantiated	-12.2387
▁Chained	-12.2387
▁NAMESPACE	-12.2388
▁getTimeout	-12.2389
Degrees	-12.2394
FileFilter	-12.2396
▁allele	-12.2397
SCHEME	-12.2398
option	-12.2399
AnnotatedType	-12.24
initial	-12.24
Md	-12.2402
▁deadline	-12.2403
VariableName	-12.2405
score	-12.2407
▁rootDir	-12.2409
▁LEVEL	-12.2411
▁percentile	-12.2412
▁Disk	-12.2413
▁mapTo	-12.2413
WEEK	-12.2414
Filler	-12.2415
▁Area	-12.2415
UserData	-12.2416
ables	-12.2416
▁attrib	-12.2416
▁setModel	-12.2417
▁componentClass	-12.2417
▁getControl	-12.2418
▁wf	-12.242
▁JobConf	-12.2423
stub	-12.2424
▁HEAD	-12.2427
ICON	-12.2428
ei	-12.243
▁getK	-12.243
▁Track	-12.243
▁earlier	-12.2433
▁tax	-12.2434
▁getTopic	-12.2434
▁rels	-12.2436
▁defines	-12.2436
▁JsonReader	-12.2439
ToLong	-12.244
Namespaced	-12.2441
▁leftTuple	-12.2442
jda	-12.2443
▁Comparison	-12.2445
strong	-12.2445
Performance	-12.2445
weight	-12.2446
Jars	-12.2446
▁bigtable	-12.2446
ExceptionReason	-12.2446
▁sdf	-12.2449
▁setFile	-12.2449
▁SARL	-12.2451
▁nextDouble	-12.2451
▁discriminator	-12.2454
▁MetaData	-12.2454
▁na	-12.2455
nio	-12.2456
▁Registration	-12.2459
▁sound	-12.2459
▁Results	-12.246
__0__	-12.2462
▁decrease	-12.2464
▁ma	-12.2464
▁sense	-12.2467
▁intended	-12.2468
▁ACCEPT	-12.2468
▁errMsg	-12.2471
▁ArrayType	-12.2473
▁grad	-12.2473
▁DataStore	-12.2474
▁checkArgNotNull	-12.2474
Constructors	-12.2476
Os	-12.2476
▁Border	-12.2476
▁getFailure	-12.2477
▁vault	-12.2478
▁urlString	-12.2479
▁Keyword	-12.2479
SuperType	-12.248
uch	-12.248
Hard	-12.2481
StartDate	-12.2485
Gate	-12.2485
▁launcher	-12.2486
Analytics	-12.2486
Specifier	-12.2487
Blocked	-12.2487
▁webapp	-12.2488
art	-12.2488
Offline	-12.2489
▁reporting	-12.2491
self	-12.2492
like	-12.2493
ium	-12.2494
▁tri	-12.2495
▁precedence	-12.2495
▁ENTRY	-12.2495
▁getByName	-12.2496
ForClass	-12.2499
Design	-12.2502
▁deleting	-12.2503
+1	-12.2503
▁Dump	-12.2504
▁"',	-12.2505
Concatenation	-12.2506
FEATURE	-12.2506
▁uninstall	-12.2507
WINDOW	-12.2508
▁"*	-12.2508
▁DS	-12.2509
▁getSupported	-12.251
Lite	-12.2511
▁rounding	-12.2512
▁para	-12.2512
InMemory	-12.2512
Com	-12.2514
Builders	-12.2515
▁Never	-12.2518
SIGN	-12.2519
▁decide	-12.252
Warn	-12.2521
▁Inline	-12.2522
▁treat	-12.2523
▁headerValue	-12.2524
▁queryFor	-12.2525
▁JSP	-12.2529
▁Lambda	-12.2529
Returned	-12.2529
Pop	-12.2529
Collect	-12.253
▁degrees	-12.2531
▁Live	-12.2532
▁cssValue	-12.2535
Plain	-12.2535
▁revoke	-12.2537
▁Redisson	-12.2537
▁robot	-12.2538
DIRECTORY	-12.254
sToAdd	-12.254
Alg	-12.2545
▁Preference	-12.2546
▁repositoryName	-12.2546
DomainName	-12.2547
▁story	-12.2548
▁getListener	-12.2548
UserRequest	-12.255
Nulls	-12.255
▁evict	-12.255
▁Scheme	-12.2551
▁propertyPath	-12.2552
▁cql	-12.2555
Formatted	-12.2555
Circuit	-12.2556
Slide	-12.2556
Publication	-12.2556
▁jobExecution	-12.2557
▁configurator	-12.2558
PROGRESS	-12.2558
▁aws	-12.256
authentication	-12.2561
float	-12.2561
▁Program	-12.2562
OperationResult	-12.2563
▁responder	-12.2564
Dates	-12.2565
▁applicationId	-12.2567
Qualified	-12.2567
▁Pipe	-12.2567
ValueExpression	-12.2569
Para	-12.2571
▁OResult	-12.2572
del	-12.2573
▁invert	-12.2574
▁ClientMessage	-12.2575
Canceled	-12.2575
REQ	-12.2575
▁budget	-12.2577
Inflater	-12.2579
▁NodeData	-12.2579
▁LoadBalancer	-12.2581
▁STYLE	-12.2583
▁getEventType	-12.2585
▁Support	-12.2586
ood	-12.2586
Executing	-12.259
▁voice	-12.2591
▁bias	-12.2593
▁pooled	-12.2598
▁SPACE	-12.26
▁asBoolean	-12.26
APPLICATION	-12.2603
TrustManager	-12.2604
Hive	-12.2607
ResId	-12.2609
ory	-12.2612
▁ApiOperation	-12.2612
AccountId	-12.2614
▁setAuto	-12.2616
RR	-12.2616
EOF	-12.262
▁retrieving	-12.2621
▁eClass	-12.2624
▁cube	-12.2627
used	-12.2627
SimpleName	-12.2628
merge	-12.2628
iving	-12.2629
▁assembly	-12.2629
BuilderFactory	-12.263
▁listening	-12.263
▁CtClass	-12.2631
▁checkIf	-12.2631
Helpers	-12.2632
▁aos	-12.2633
Foreground	-12.2633
TagName	-12.2633
▁getChar	-12.2634
▁Slot	-12.2634
ganizationalUnit	-12.2635
Hadoop	-12.2635
▁getMode	-12.2638
Fold	-12.264
▁Grpc	-12.2641
Premise	-12.2641
Qualifiers	-12.2642
▁STR	-12.2646
bc	-12.2646
▁Loop	-12.2648
Datasource	-12.2649
▁PM	-12.2651
Sensor	-12.2652
RED	-12.2652
ub	-12.2653
▁typically	-12.2653
▁0;	-12.2653
tructuralFeature	-12.2656
Interrupt	-12.2658
▁Ja	-12.2659
Removing	-12.2664
MOR	-12.2668
▁addNode	-12.2668
GroupManager	-12.267
▁away	-12.2672
▁longest	-12.2673
\",	-12.2673
▁dirs	-12.2673
▁PROTOCOL	-12.2675
▁py	-12.2676
Crypto	-12.2677
▁Sp	-12.2677
▁compared	-12.2677
▁Citrus	-12.2679
reationalContext	-12.268
FileSize	-12.268
▁mention	-12.268
▁getGroups	-12.268
▁getCharacter	-12.2681
sb	-12.2682
▁variance	-12.2684
▁xs	-12.2684
▁fresh	-12.2685
isWarnEnabled	-12.2685
Bookmark	-12.2687
▁Jar	-12.2688
crypt	-12.269
▁Public	-12.2691
▁cpRule	-12.2691
Deliver	-12.2694
py	-12.2696
iate	-12.2698
Regular	-12.2699
▁AnnotationValue	-12.2704
▁300	-12.2706
Backward	-12.2706
▁camel	-12.2708
▁doFinal	-12.271
▁Crypto	-12.2711
▁Ua	-12.2711
▁getErrors	-12.2712
OO	-12.2713
▁viewport	-12.2713
PRE	-12.2714
▁Reason	-12.2714
▁inStream	-12.2715
Reconnect	-12.2719
▁rowId	-12.272
201	-12.272
▁PORT	-12.2721
▁Help	-12.2722
>."	-12.2724
▁matchers	-12.2725
under	-12.2725
tribut	-12.2729
▁editable	-12.2729
▁HttpGet	-12.2731
Timing	-12.2731
EventListeners	-12.2733
mn	-12.2736
▁datum	-12.2739
hr	-12.274
▁getTypes	-12.2742
Wiki	-12.2742
NF	-12.2743
▁converting	-12.2744
▁hdfs	-12.2744
▁getAsset	-12.2745
▁faster	-12.2746
route	-12.2748
att	-12.2751
▁repair	-12.2751
none	-12.2751
▁jboss	-12.2751
mask	-12.2751
▁actualType	-12.2751
Unary	-12.2752
Intersection	-12.2758
▁getOid	-12.2758
Author	-12.2759
▁screenshot	-12.2759
▁limited	-12.276
▁SCHEMA	-12.2761
▁Elasticsearch	-12.2761
FIELDS	-12.2764
ons	-12.2764
TextArea	-12.2765
▁getLayout	-12.2765
▁1,	-12.2769
▁win	-12.277
▁pAddParam	-12.277
▁Backpressure	-12.277
AccessKey	-12.2771
▁potentially	-12.2773
▁deploymentId	-12.2773
Perm	-12.2773
BAD	-12.2775
ProtocolVersion	-12.2775
▁Fail	-12.2778
Recommendation	-12.2781
LI	-12.2781
▁symbolTable	-12.2782
▁OrderType	-12.2782
▁reaction	-12.2783
▁ignoreCase	-12.2787
▁domainName	-12.2789
validation	-12.279
ItemId	-12.279
▁latency	-12.2792
StateException	-12.2792
DocumentBuilder	-12.2793
▁Registered	-12.2794
IRI	-12.2795
ListView	-12.2797
DataProvider	-12.2799
SecurityGroups	-12.2801
Locales	-12.2802
▁Mistyped	-12.2802
rk	-12.2802
▁OClass	-12.2806
▁queryPage	-12.2807
late	-12.2807
▁PDefinition	-12.2808
▁thumbnail	-12.2809
▁Gen	-12.2811
AndSetParameter	-12.2812
▁typeParameters	-12.2814
missing	-12.2814
▁Functions	-12.2815
delegate	-12.2818
separator	-12.2818
Imported	-12.282
CellStyle	-12.2821
▁asWidget	-12.2823
▁Medication	-12.2824
▁ClassHelper	-12.2825
Triangle	-12.2825
▁Addon	-12.2825
CWSI	-12.2825
▁avail	-12.2826
JMS	-12.2826
ose	-12.2829
▁resultType	-12.283
▁IoSession	-12.2831
▁ApiParam	-12.2831
Notice	-12.2832
rf	-12.2838
Serializers	-12.2838
StringArray	-12.2839
▁PrivateKey	-12.2839
Chem	-12.284
▁isNot	-12.2841
▁setC	-12.2841
▁exported	-12.2842
▁subType	-12.2843
▁Requires	-12.2843
▁fo	-12.2845
▁xstream	-12.2845
Tooltip	-12.2845
Solid	-12.2845
▁IOUtil	-12.2846
Arns	-12.2846
▁DESCRIPTION	-12.2846
EObject	-12.2846
Geom	-12.2847
▁agreement	-12.285
Purge	-12.2851
InterfaceName	-12.2852
ender	-12.2855
DataList	-12.2856
▁AtomicBoolean	-12.2857
▁commerceAddress	-12.2858
BL	-12.2859
▁ae	-12.286
PageSize	-12.2863
oy	-12.2864
▁timing	-12.2867
Mixed	-12.2868
ish	-12.2869
▁deepCopy	-12.287
▁baseType	-12.2873
JavaScript	-12.2874
▁setLevel	-12.2875
▁boxed	-12.2876
▁capitalize	-12.2878
▁Choice	-12.2879
Incoming	-12.288
▁copyFrom	-12.2881
▁COUNT	-12.2882
ChangedEvent	-12.2882
KEYS	-12.2883
▁TypeDeclaration	-12.2883
▁propValue	-12.2884
▁Decoder	-12.2884
▁writeExternal	-12.2885
▁sx	-12.2885
HANDLE	-12.2886
▁balancer	-12.2888
Polling	-12.2888
Leading	-12.2888
▁mods	-12.2889
▁InternalSARL	-12.2889
▁Cannot	-12.2889
owner	-12.2892
QueryParameters	-12.2893
▁TRANSACTION	-12.2893
LIB	-12.2894
RATE	-12.2894
Photo	-12.2894
master	-12.2897
▁memberName	-12.2897
▁setTimestamp	-12.2898
WrapperFactory	-12.29
Groovy	-12.2904
ValueOf	-12.2905
▁mu	-12.2905
▁Publish	-12.2906
▁Router	-12.2906
MapEntry	-12.2906
▁isFinal	-12.2906
▁UP	-12.2907
▁Io	-12.2908
Tabs	-12.291
▁IT	-12.291
▁changing	-12.2911
Hashes	-12.2912
ANT	-12.2912
▁chat	-12.2914
▁Translation	-12.2914
▁primitiveType	-12.2917
▁BatchGet	-12.2917
▁rf	-12.2917
help	-12.292
DU	-12.2921
▁hasMore	-12.2921
▁collision	-12.2921
▁threadId	-12.2921
▁game	-12.2921
InstanceOf	-12.2922
SSLSocketFactory	-12.2925
▁)*	-12.2926
ATTRIBUTES	-12.2926
OpenOrders	-12.2926
▁Aggregator	-12.2928
Simulation	-12.2928
▁signing	-12.2928
▁conclusion	-12.2929
▁Plain	-12.293
▁NotConnected	-12.2933
▁extent	-12.2935
Unused	-12.2936
vaultBaseUrl	-12.2937
▁MIME	-12.2939
RequestProperty	-12.2939
▁loadFrom	-12.294
StatusResult	-12.294
▁Min	-12.2944
▁isEnum	-12.2944
▁oAuth	-12.2944
▁getPredicate	-12.2945
▁Cpo	-12.2946
progress	-12.2949
▁protocols	-12.2951
▁collapse	-12.2952
▁totalSize	-12.2952
▁throwing	-12.2953
Jms	-12.2953
▁caused	-12.2954
Overview	-12.2955
WarehouseItem	-12.2955
Go	-12.2959
Requires	-12.296
▁bytecode	-12.2961
FactoryImpl	-12.2961
Repair	-12.2964
WaitTime	-12.2964
julie	-12.2965
▁assets	-12.2966
▁1.2	-12.2966
▁accessing	-12.2966
free	-12.2967
Clicked	-12.2968
Limits	-12.297
SEARCH	-12.2971
UM	-12.2973
Bank	-12.2975
▁Tensor	-12.2976
▁BpsimPackage	-12.2976
Undo	-12.2977
ClientId	-12.2977
WhiteSpace	-12.2977
InstanceProfile	-12.2978
▁kafka	-12.2978
▁incorrect	-12.2979
▁Checkpoint	-12.2979
▁isUse	-12.298
▁responseType	-12.2981
▁setAdapter	-12.2982
axis	-12.2982
FilterChain	-12.2982
▁GenericType	-12.2984
RC	-12.2986
rl	-12.2986
Disposition	-12.2987
he	-12.299
▁createP	-12.299
▁convertView	-12.299
▁Fn	-12.2991
vc	-12.2991
UpperBound	-12.2992
DataModel	-12.2992
interval	-12.2993
▁om	-12.2994
▁pageIndex	-12.2995
▁columnCount	-12.2995
▁searching	-12.2998
▁MouseEvent	-12.2998
▁getEmail	-12.3
▁exitCode	-12.3001
Combo	-12.3001
▁cpDefinitionId	-12.3002
▁meth	-12.3002
_6	-12.3005
Kie	-12.301
▁crop	-12.301
WebApp	-12.3012
DBInstance	-12.3014
PLAIN	-12.3015
alias	-12.3015
▁getJavaType	-12.3016
ItemCount	-12.3018
SegmentCriterion	-12.302
▁insets	-12.3022
▁dismiss	-12.3024
Cli	-12.3025
ii	-12.3028
LO	-12.3029
reader	-12.3029
vector	-12.3029
▁Therefore	-12.3031
▁CLI	-12.3032
▁toBe	-12.3033
▁derive	-12.3033
▁getCurrency	-12.3034
▁methodCall	-12.3034
NORMAL	-12.3034
▁setQuery	-12.3034
inject	-12.3037
▁ln	-12.3039
▁Ext	-12.3039
▁permitted	-12.3042
▁LoggingUtil	-12.3042
Reached	-12.3043
▁Charsets	-12.3045
Invalidate	-12.3045
ParserException	-12.3047
▁Parent	-12.3047
bulk	-12.3048
▁JsonWriter	-12.3049
ToBytes	-12.305
▁combiner	-12.3052
▁eventBus	-12.3052
▁causes	-12.3054
▁adwords	-12.3054
▁getWeb	-12.3054
▁Replication	-12.3058
ail	-12.3059
▁QueryParameter	-12.306
▁Hex	-12.3065
PropertyNames	-12.3065
ParseUtils	-12.3065
proc	-12.3065
▁Refresh	-12.3066
▁TypeSystem	-12.3066
▁correlation	-12.3066
▁getAlias	-12.3067
MO	-12.307
▁setDisplay	-12.3072
Mobile	-12.3075
Micro	-12.3075
▁SQLite	-12.3076
▁addAndGet	-12.3078
NG	-12.3081
ValueSet	-12.3082
▁getWidget	-12.3084
▁Distribution	-12.3084
▁overall	-12.3084
Foreign	-12.3085
ResourceNotFound	-12.3085
CreateOrUpdate	-12.3086
▁GENERIC	-12.3087
▁acquired	-12.3094
▁beginIndex	-12.3096
▁tid	-12.3098
any	-12.3098
Cas	-12.3099
▁deviceId	-12.31
KeyArea	-12.3101
▁lm	-12.3102
ItemSelected	-12.3106
▁corresponds	-12.3109
Mount	-12.3109
PlanNode	-12.3109
▁getDefinition	-12.311
▁lineno	-12.3111
▁singletonMap	-12.3112
▁pat	-12.3112
▁wr	-12.3114
▁rdf	-12.3116
▁jsonParser	-12.3117
Unlock	-12.3118
dx	-12.3119
▁becomes	-12.3119
Reuse	-12.3119
!!!	-12.312
_2_	-12.3122
PriceList	-12.3123
▁WeakReference	-12.3124
low	-12.3126
vo	-12.3126
Destroyed	-12.3127
ItemStream	-12.3128
TableRow	-12.3129
blas	-12.3129
▁efficient	-12.313
▁therefore	-12.313
▁findById	-12.3133
[...]
